{
    "output_sequence_length": 192,
    "standardize": "lower",
    "pattern_tokenize": true,
    "token_to_id": {
        "<pad>": 0,
        "<unk>": 1,
        "<bos>": 2,
        "<mos>": 3,
        "<eos>": 4,
        "!": 5,
        "\"": 6,
        "#": 7,
        "$": 8,
        "%": 9,
        "&": 10,
        "'": 11,
        "(": 12,
        ")": 13,
        "*": 14,
        "+": 15,
        ",": 16,
        "-": 17,
        ".": 18,
        "/": 19,
        "0": 20,
        "1": 21,
        "2": 22,
        "3": 23,
        "4": 24,
        "5": 25,
        "6": 26,
        "7": 27,
        "8": 28,
        "9": 29,
        ":": 30,
        ";": 31,
        "=": 32,
        "?": 33,
        "@": 34,
        "\\": 35,
        "a": 36,
        "b": 37,
        "c": 38,
        "d": 39,
        "e": 40,
        "f": 41,
        "g": 42,
        "h": 43,
        "i": 44,
        "j": 45,
        "k": 46,
        "l": 47,
        "m": 48,
        "n": 49,
        "o": 50,
        "p": 51,
        "q": 52,
        "r": 53,
        "s": 54,
        "t": 55,
        "u": 56,
        "v": 57,
        "w": 58,
        "x": 59,
        "y": 60,
        "z": 61,
        "~": 62,
        "": 63,
        "£": 64,
        "¥": 65,
        "°": 66,
        "–": 67,
        "—": 68,
        "‘": 69,
        "’": 70,
        "“": 71,
        "”": 72,
        "′": 73,
        "、": 74,
        "。": 75,
        "th": 76,
        "ou": 77,
        "in": 78,
        "re": 79,
        "an": 80,
        "the": 81,
        "you": 82,
        "at": 83,
        "on": 84,
        "to": 85,
        "er": 86,
        "it": 87,
        "ll": 88,
        "is": 89,
        "or": 90,
        "me": 91,
        "ing": 92,
        "ve": 93,
        "es": 94,
        "se": 95,
        "he": 96,
        "st": 97,
        "le": 98,
        "ha": 99,
        "we": 100,
        "ar": 101,
        "and": 102,
        "ow": 103,
        "be": 104,
        "en": 105,
        "of": 106,
        "ke": 107,
        "ay": 108,
        "wh": 109,
        "that": 110,
        "do": 111,
        "for": 112,
        "go": 113,
        "ic": 114,
        "so": 115,
        "al": 116,
        "as": 117,
        "all": 118,
        "have": 119,
        "wi": 120,
        "ch": 121,
        "ld": 122,
        "ed": 123,
        "li": 124,
        "are": 125,
        "no": 126,
        "ut": 127,
        "gh": 128,
        "ro": 129,
        "co": 130,
        "ver": 131,
        "what": 132,
        "id": 133,
        "can": 134,
        "lo": 135,
        "ge": 136,
        "ne": 137,
        "ould": 138,
        "your": 139,
        "ri": 140,
        "ti": 141,
        "ab": 142,
        "ac": 143,
        "out": 144,
        "ght": 145,
        "my": 146,
        "su": 147,
        "nt": 148,
        "ad": 149,
        "ok": 150,
        "ly": 151,
        "now": 152,
        "one": 153,
        "ir": 154,
        "but": 155,
        "this": 156,
        "like": 157,
        "yes": 158,
        "ter": 159,
        "od": 160,
        "how": 161,
        "any": 162,
        "am": 163,
        "with": 164,
        "ple": 165,
        "mo": 166,
        "our": 167,
        "if": 168,
        "pe": 169,
        "ion": 170,
        "here": 171,
        "ta": 172,
        "ust": 173,
        "some": 174,
        "te": 175,
        "ally": 176,
        "ink": 177,
        "don": 178,
        "very": 179,
        "will": 180,
        "there": 181,
        "ant": 182,
        "about": 183,
        "get": 184,
        "ce": 185,
        "sh": 186,
        "not": 187,
        "thing": 188,
        "fe": 189,
        "day": 190,
        "tr": 191,
        "un": 192,
        "think": 193,
        "wor": 194,
        "us": 195,
        "well": 196,
        "than": 197,
        "ma": 198,
        "good": 199,
        "know": 200,
        "ex": 201,
        "mp": 202,
        "would": 203,
        "de": 204,
        "ther": 205,
        "see": 206,
        "time": 207,
        "ye": 208,
        "just": 209,
        "was": 210,
        "they": 211,
        "ice": 212,
        "right": 213,
        "ind": 214,
        "pro": 215,
        "po": 216,
        "ase": 217,
        "ur": 218,
        "ho": 219,
        "ry": 220,
        "want": 221,
        "per": 222,
        "thank": 223,
        "ation": 224,
        "did": 225,
        "pl": 226,
        "really": 227,
        "nd": 228,
        "up": 229,
        "oh": 230,
        "way": 231,
        "art": 232,
        "ment": 233,
        "con": 234,
        "mu": 235,
        "ive": 236,
        "ate": 237,
        "please": 238,
        "qu": 239,
        "af": 240,
        "work": 241,
        "need": 242,
        "hi": 243,
        "let": 244,
        "ag": 245,
        "bo": 246,
        "ine": 247,
        "take": 248,
        "look": 249,
        "use": 250,
        "sure": 251,
        "much": 252,
        "fo": 253,
        "too": 254,
        "end": 255,
        "ul": 256,
        "hen": 257,
        "ap": 258,
        "ong": 259,
        "ess": 260,
        "res": 261,
        "rom": 262,
        "come": 263,
        "ight": 264,
        "ast": 265,
        "ble": 266,
        "ts": 267,
        "going": 268,
        "from": 269,
        "ck": 270,
        "il": 271,
        "when": 272,
        "could": 273,
        "ound": 274,
        "she": 275,
        "ain": 276,
        "should": 277,
        "ame": 278,
        "ill": 279,
        "ack": 280,
        "ard": 281,
        "ig": 282,
        "comp": 283,
        "new": 284,
        "then": 285,
        "ree": 286,
        "tion": 287,
        "may": 288,
        "el": 289,
        "ite": 290,
        "more": 291,
        "red": 292,
        "est": 293,
        "der": 294,
        "jo": 295,
        "off": 296,
        "by": 297,
        "ent": 298,
        "got": 299,
        "ning": 300,
        "ide": 301,
        "che": 302,
        "why": 303,
        "gre": 304,
        "them": 305,
        "mor": 306,
        "om": 307,
        "hel": 308,
        "other": 309,
        "sp": 310,
        "ie": 311,
        "pp": 312,
        "help": 313,
        "act": 314,
        "cou": 315,
        "pre": 316,
        "been": 317,
        "ra": 318,
        "ct": 319,
        "make": 320,
        "com": 321,
        "ort": 322,
        "ity": 323,
        "able": 324,
        "where": 325,
        "every": 326,
        "eve": 327,
        "ish": 328,
        "bu": 329,
        "sa": 330,
        "ty": 331,
        "mb": 332,
        "great": 333,
        "wo": 334,
        "pr": 335,
        "har": 336,
        "room": 337,
        "does": 338,
        "over": 339,
        "peo": 340,
        "people": 341,
        "ers": 342,
        "has": 343,
        "cl": 344,
        "ars": 345,
        "own": 346,
        "wee": 347,
        "ten": 348,
        "her": 349,
        "si": 350,
        "fir": 351,
        "tell": 352,
        "gr": 353,
        "ous": 354,
        "rest": 355,
        "king": 356,
        "read": 357,
        "ting": 358,
        "ah": 359,
        "after": 360,
        "00": 361,
        "br": 362,
        "gu": 363,
        "bus": 364,
        "sor": 365,
        "call": 366,
        "ca": 367,
        "count": 368,
        "give": 369,
        "ci": 370,
        "week": 371,
        "spe": 372,
        "sorry": 373,
        "long": 374,
        "had": 375,
        "ough": 376,
        "mon": 377,
        "bet": 378,
        "lot": 379,
        "first": 380,
        "ass": 381,
        "sto": 382,
        "mar": 383,
        "cho": 384,
        "two": 385,
        "man": 386,
        "say": 387,
        "back": 388,
        "part": 389,
        "cour": 390,
        "sir": 391,
        "ick": 392,
        "lf": 393,
        "ep": 394,
        "ms": 395,
        "thanks": 396,
        "who": 397,
        "ving": 398,
        "ach": 399,
        "yeah": 400,
        "only": 401,
        "him": 402,
        "ies": 403,
        "fore": 404,
        "many": 405,
        "won": 406,
        "mber": 407,
        "proble": 408,
        "try": 409,
        "chan": 410,
        "ol": 411,
        "anything": 412,
        "pay": 413,
        "most": 414,
        "ure": 415,
        "job": 416,
        "gl": 417,
        "min": 418,
        "ave": 419,
        "age": 420,
        "tle": 421,
        "xt": 422,
        "also": 423,
        "company": 424,
        "ak": 425,
        "kind": 426,
        "ace": 427,
        "something": 428,
        "course": 429,
        "today": 430,
        "sit": 431,
        "didn": 432,
        "mis": 433,
        "his": 434,
        "last": 435,
        "row": 436,
        "ich": 437,
        "car": 438,
        "fri": 439,
        "ser": 440,
        "next": 441,
        "mr": 442,
        "ud": 443,
        "were": 444,
        "inter": 445,
        "find": 446,
        "happ": 447,
        "lit": 448,
        "du": 449,
        "love": 450,
        "feel": 451,
        "pen": 452,
        "mean": 453,
        "oney": 454,
        "better": 455,
        "nice": 456,
        "ater": 457,
        "problem": 458,
        "mee": 459,
        "sm": 460,
        "chin": 461,
        "av": 462,
        "buy": 463,
        "wa": 464,
        "wr": 465,
        "ance": 466,
        "cer": 467,
        "ways": 468,
        "check": 469,
        "ist": 470,
        "ought": 471,
        "before": 472,
        "ked": 473,
        "morning": 474,
        "clo": 475,
        "down": 476,
        "must": 477,
        "fin": 478,
        "sound": 479,
        "cause": 480,
        "air": 481,
        "little": 482,
        "nu": 483,
        "ign": 484,
        "friend": 485,
        "tal": 486,
        "which": 487,
        "inte": 488,
        "imp": 489,
        "ready": 490,
        "name": 491,
        "fine": 492,
        "money": 493,
        "interest": 494,
        "son": 495,
        "atch": 496,
        "start": 497,
        "maybe": 498,
        "month": 499,
        "always": 500,
        "play": 501,
        "urn": 502,
        "dr": 503,
        "these": 504,
        "bl": 505,
        "things": 506,
        "put": 507,
        "ile": 508,
        "mad": 509,
        "rent": 510,
        "fr": 511,
        "wait": 512,
        "home": 513,
        "ful": 514,
        "di": 515,
        "vie": 516,
        "because": 517,
        "dif": 518,
        "ans": 519,
        "form": 520,
        "ress": 521,
        "days": 522,
        "dis": 523,
        "tor": 524,
        "cor": 525,
        "never": 526,
        "sho": 527,
        "ket": 528,
        "minut": 529,
        "self": 530,
        "ose": 531,
        "mm": 532,
        "again": 533,
        "morrow": 534,
        "tomorrow": 535,
        "year": 536,
        "still": 537,
        "ary": 538,
        "night": 539,
        "sounds": 540,
        "int": 541,
        "under": 542,
        "stand": 543,
        "food": 544,
        "three": 545,
        "card": 546,
        "few": 547,
        "la": 548,
        "ang": 549,
        "fic": 550,
        "ue": 551,
        "their": 552,
        "keep": 553,
        "ner": 554,
        "ren": 555,
        "hour": 556,
        "mind": 557,
        "ise": 558,
        "ese": 559,
        "into": 560,
        "hard": 561,
        "ste": 562,
        "ph": 563,
        "class": 564,
        "tain": 565,
        "show": 566,
        "ip": 567,
        "lu": 568,
        "idea": 569,
        "pa": 570,
        "care": 571,
        "best": 572,
        "ask": 573,
        "turn": 574,
        "ton": 575,
        "sed": 576,
        "light": 577,
        "stud": 578,
        "bad": 579,
        "big": 580,
        "hou": 581,
        "par": 582,
        "even": 583,
        "lear": 584,
        "bit": 585,
        "sal": 586,
        "ction": 587,
        "quite": 588,
        "gg": 589,
        "else": 590,
        "exc": 591,
        "book": 592,
        "scho": 593,
        "hope": 594,
        "ild": 595,
        "change": 596,
        "doll": 597,
        "office": 598,
        "ious": 599,
        "sha": 600,
        "years": 601,
        "hell": 602,
        "iness": 603,
        "around": 604,
        "ually": 605,
        "plan": 606,
        "eat": 607,
        "doing": 608,
        "number": 609,
        "isn": 610,
        "vis": 611,
        "house": 612,
        "raid": 613,
        "afraid": 614,
        "tri": 615,
        "school": 616,
        "engl": 617,
        "fam": 618,
        "usu": 619,
        "posit": 620,
        "working": 621,
        "char": 622,
        "fer": 623,
        "business": 624,
        "times": 625,
        "high": 626,
        "hello": 627,
        "ps": 628,
        "kes": 629,
        "place": 630,
        "hand": 631,
        "late": 632,
        "ence": 633,
        "actually": 634,
        "order": 635,
        "looking": 636,
        "made": 637,
        "stay": 638,
        "cial": 639,
        "ily": 640,
        "ze": 641,
        "okay": 642,
        "english": 643,
        "cre": 644,
        "miss": 645,
        "diffe": 646,
        "price": 647,
        "ven": 648,
        "old": 649,
        "everything": 650,
        "fun": 651,
        "account": 652,
        "ss": 653,
        "thought": 654,
        "meet": 655,
        "another": 656,
        "fu": 657,
        "tom": 658,
        "doesn": 659,
        "tic": 660,
        "certain": 661,
        "leave": 662,
        "live": 663,
        "person": 664,
        "chinese": 665,
        "les": 666,
        "happen": 667,
        "drink": 668,
        "set": 669,
        "went": 670,
        "ated": 671,
        "eas": 672,
        "side": 673,
        "same": 674,
        "each": 675,
        "wonder": 676,
        "ash": 677,
        "its": 678,
        "joy": 679,
        "haven": 680,
        "soon": 681,
        "sur": 682,
        "phone": 683,
        "noon": 684,
        "dri": 685,
        "dollars": 686,
        "amer": 687,
        "said": 688,
        "minutes": 689,
        "those": 690,
        "des": 691,
        "cond": 692,
        "ather": 693,
        "bre": 694,
        "enjoy": 695,
        "watch": 696,
        "usually": 697,
        "while": 698,
        "such": 699,
        "vice": 700,
        "bab": 701,
        "line": 702,
        "ank": 703,
        "pret": 704,
        "ear": 705,
        "dec": 706,
        "might": 707,
        "peri": 708,
        "um": 709,
        "str": 710,
        "beli": 711,
        "din": 712,
        "low": 713,
        "ations": 714,
        "five": 715,
        "ever": 716,
        "import": 717,
        "reme": 718,
        "view": 719,
        "afternoon": 720,
        "done": 721,
        "guess": 722,
        "hear": 723,
        "ition": 724,
        "pretty": 725,
        "sk": 726,
        "bring": 727,
        "10": 728,
        "sing": 729,
        "yet": 730,
        "head": 731,
        "certainly": 732,
        "pt": 733,
        "cus": 734,
        "cle": 735,
        "estion": 736,
        "produ": 737,
        "free": 738,
        "wal": 739,
        "already": 740,
        "fee": 741,
        "enough": 742,
        "aut": 743,
        "wel": 744,
        "lic": 745,
        "ments": 746,
        "looks": 747,
        "doc": 748,
        "open": 749,
        "heard": 750,
        "believe": 751,
        "pare": 752,
        "used": 753,
        "rough": 754,
        "point": 755,
        "getting": 756,
        "ft": 757,
        "coming": 758,
        "happy": 759,
        "add": 760,
        "ular": 761,
        "comput": 762,
        "train": 763,
        "lle": 764,
        "vers": 765,
        "different": 766,
        "ding": 767,
        "mat": 768,
        "im": 769,
        "full": 770,
        "gir": 771,
        "cost": 772,
        "table": 773,
        "important": 774,
        "hed": 775,
        "nothing": 776,
        "bro": 777,
        "je": 778,
        "fi": 779,
        "beaut": 780,
        "cur": 781,
        "rece": 782,
        "run": 783,
        "understand": 784,
        "uan": 785,
        "through": 786,
        "ical": 787,
        "worry": 788,
        "pu": 789,
        "sign": 790,
        "special": 791,
        "city": 792,
        "away": 793,
        "talk": 794,
        "send": 795,
        "sible": 796,
        "sent": 797,
        "cy": 798,
        "later": 799,
        "remember": 800,
        "wrong": 801,
        "meeting": 802,
        "offer": 803,
        "ason": 804,
        "friends": 805,
        "often": 806,
        "small": 807,
        "colle": 808,
        "ail": 809,
        "lor": 810,
        "ger": 811,
        "cess": 812,
        "fill": 813,
        "pens": 814,
        "tonight": 815,
        "wed": 816,
        "cent": 817,
        "als": 818,
        "ppo": 819,
        "left": 820,
        "fast": 821,
        "agree": 822,
        "cr": 823,
        "reg": 824,
        "men": 825,
        "bed": 826,
        "excuse": 827,
        "dinner": 828,
        "child": 829,
        "cont": 830,
        "fect": 831,
        "easy": 832,
        "lar": 833,
        "port": 834,
        "inform": 835,
        "americ": 836,
        "far": 837,
        "stop": 838,
        "real": 839,
        "learn": 840,
        "ef": 841,
        "speak": 842,
        "toge": 843,
        "together": 844,
        "uni": 845,
        "less": 846,
        "med": 847,
        "move": 848,
        "expens": 849,
        "service": 850,
        "experi": 851,
        "pect": 852,
        "four": 853,
        "ward": 854,
        "computer": 855,
        "family": 856,
        "sin": 857,
        "tel": 858,
        "cred": 859,
        "hours": 860,
        "yuan": 861,
        "au": 862,
        "beautif": 863,
        "moment": 864,
        "ities": 865,
        "ult": 866,
        "cen": 867,
        "iting": 868,
        "suppo": 869,
        "party": 870,
        "bill": 871,
        "mus": 872,
        "someone": 873,
        "cts": 874,
        "true": 875,
        "hotel": 876,
        "reser": 877,
        "bank": 878,
        "question": 879,
        "ried": 880,
        "beautiful": 881,
        "ball": 882,
        "having": 883,
        "thir": 884,
        "ces": 885,
        "break": 886,
        "country": 887,
        "bye": 888,
        "alth": 889,
        "kid": 890,
        "both": 891,
        "seems": 892,
        "glad": 893,
        "ju": 894,
        "world": 895,
        "game": 896,
        "probab": 897,
        "welcome": 898,
        "probably": 899,
        "seat": 900,
        "life": 901,
        "pos": 902,
        "emp": 903,
        "prefer": 904,
        "mail": 905,
        "lis": 906,
        "evening": 907,
        "ouble": 908,
        "interested": 909,
        "china": 910,
        "til": 911,
        "bor": 912,
        "cut": 913,
        "ship": 914,
        "told": 915,
        "depart": 916,
        "trave": 917,
        "apart": 918,
        "sen": 919,
        "hey": 920,
        "nts": 921,
        "water": 922,
        "expensive": 923,
        "until": 924,
        "qual": 925,
        "exce": 926,
        "sometimes": 927,
        "ices": 928,
        "wow": 929,
        "pic": 930,
        "net": 931,
        "second": 932,
        "20": 933,
        "oking": 934,
        "teach": 935,
        "inv": 936,
        "interesting": 937,
        "information": 938,
        "flight": 939,
        "sun": 940,
        "sat": 941,
        "ating": 942,
        "ago": 943,
        "ted": 944,
        "cof": 945,
        "hu": 946,
        "ody": 947,
        "study": 948,
        "bir": 949,
        "since": 950,
        "girl": 951,
        "ys": 952,
        "exact": 953,
        "fav": 954,
        "myself": 955,
        "yourself": 956,
        "bag": 957,
        "coffee": 958,
        "unch": 959,
        "tu": 960,
        "ited": 961,
        "weekend": 962,
        "luck": 963,
        "shall": 964,
        "pres": 965,
        "cha": 966,
        "hot": 967,
        "000": 968,
        "ange": 969,
        "manag": 970,
        "music": 971,
        "walk": 972,
        "body": 973,
        "aur": 974,
        "half": 975,
        "interview": 976,
        "restaur": 977,
        "restaurant": 978,
        "sle": 979,
        "being": 980,
        "movie": 981,
        "six": 982,
        "na": 983,
        "ries": 984,
        "50": 985,
        "spend": 986,
        "exam": 987,
        "experience": 988,
        "30": 989,
        "ates": 990,
        "hun": 991,
        "ount": 992,
        "hur": 993,
        "charge": 994,
        "doctor": 995,
        "expect": 996,
        "sou": 997,
        "case": 998,
        "pping": 999,
        "credit": 1000,
        "sever": 1001,
        "thinking": 1002,
        "busy": 1003,
        "ters": 1004,
        "app": 1005,
        "ticket": 1006,
        "wear": 1007,
        "bar": 1008,
        "once": 1009,
        "suit": 1010,
        "almost": 1011,
        "near": 1012,
        "yester": 1013,
        "yesterday": 1014,
        "aren": 1015,
        "position": 1016,
        "color": 1017,
        "iz": 1018,
        "ath": 1019,
        "perfect": 1020,
        "stree": 1021,
        "emplo": 1022,
        "several": 1023,
        "hold": 1024,
        "called": 1025,
        "ides": 1026,
        "everyone": 1027,
        "market": 1028,
        "pick": 1029,
        "gin": 1030,
        "favor": 1031,
        "health": 1032,
        "ken": 1033,
        "ital": 1034,
        "though": 1035,
        "war": 1036,
        "cri": 1037,
        "clock": 1038,
        "sub": 1039,
        "terri": 1040,
        "found": 1041,
        "sugg": 1042,
        "exactly": 1043,
        "wind": 1044,
        "versity": 1045,
        "possible": 1046,
        "cold": 1047,
        "paper": 1048,
        "ents": 1049,
        "gy": 1050,
        "apartment": 1051,
        "university": 1052,
        "lat": 1053,
        "gen": 1054,
        "seen": 1055,
        "sol": 1056,
        "serious": 1057,
        "mend": 1058,
        "appoint": 1059,
        "ele": 1060,
        "ia": 1061,
        "ient": 1062,
        "ds": 1063,
        "happened": 1064,
        "travel": 1065,
        "por": 1066,
        "incl": 1067,
        "cash": 1068,
        "avail": 1069,
        "ian": 1070,
        "ves": 1071,
        "tv": 1072,
        "grad": 1073,
        "matter": 1074,
        "thes": 1075,
        "main": 1076,
        "trans": 1077,
        "commend": 1078,
        "fil": 1079,
        "deposit": 1080,
        "clean": 1081,
        "sell": 1082,
        "pas": 1083,
        "taking": 1084,
        "weeks": 1085,
        "street": 1086,
        "sty": 1087,
        "wife": 1088,
        "trip": 1089,
        "department": 1090,
        "att": 1091,
        "ved": 1092,
        "ones": 1093,
        "manager": 1094,
        "ption": 1095,
        "reason": 1096,
        "sy": 1097,
        "deal": 1098,
        "ru": 1099,
        "fit": 1100,
        "wanted": 1101,
        "jing": 1102,
        "band": 1103,
        "pass": 1104,
        "cal": 1105,
        "sport": 1106,
        "birth": 1107,
        "recommend": 1108,
        "wish": 1109,
        "parents": 1110,
        "ot": 1111,
        "az": 1112,
        "road": 1113,
        "anyway": 1114,
        "aking": 1115,
        "reserv": 1116,
        "hon": 1117,
        "erc": 1118,
        "pleas": 1119,
        "val": 1120,
        "ith": 1121,
        "mary": 1122,
        "boss": 1123,
        "ring": 1124,
        "minute": 1125,
        "size": 1126,
        "available": 1127,
        "pie": 1128,
        "weather": 1129,
        "clothes": 1130,
        "large": 1131,
        "joh": 1132,
        "bought": 1133,
        "john": 1134,
        "flo": 1135,
        "dire": 1136,
        "exerc": 1137,
        "comm": 1138,
        "frid": 1139,
        "fac": 1140,
        "sales": 1141,
        "ational": 1142,
        "blo": 1143,
        "ither": 1144,
        "mmer": 1145,
        "mil": 1146,
        "top": 1147,
        "rather": 1148,
        "gram": 1149,
        "prof": 1150,
        "listen": 1151,
        "ages": 1152,
        "present": 1153,
        "tea": 1154,
        "tow": 1155,
        "short": 1156,
        "llow": 1157,
        "cli": 1158,
        "pri": 1159,
        "acce": 1160,
        "pop": 1161,
        "pack": 1162,
        "mi": 1163,
        "tour": 1164,
        "pon": 1165,
        "trad": 1166,
        "came": 1167,
        "calling": 1168,
        "ished": 1169,
        "ny": 1170,
        "team": 1171,
        "early": 1172,
        "hair": 1173,
        "et": 1174,
        "fre": 1175,
        "sleep": 1176,
        "cons": 1177,
        "comes": 1178,
        "diffic": 1179,
        "ced": 1180,
        "date": 1181,
        "talking": 1182,
        "mach": 1183,
        "children": 1184,
        "ided": 1185,
        "lost": 1186,
        "wonderful": 1187,
        "wouldn": 1188,
        "started": 1189,
        "park": 1190,
        "lan": 1191,
        "bei": 1192,
        "ics": 1193,
        "bas": 1194,
        "friday": 1195,
        "vac": 1196,
        "alright": 1197,
        "tory": 1198,
        "months": 1199,
        "makes": 1200,
        "saw": 1201,
        "tre": 1202,
        "begin": 1203,
        "smith": 1204,
        "accept": 1205,
        "uring": 1206,
        "couldn": 1207,
        "write": 1208,
        "tive": 1209,
        "beijing": 1210,
        "build": 1211,
        "rain": 1212,
        "pain": 1213,
        "reservation": 1214,
        "bes": 1215,
        "ster": 1216,
        "making": 1217,
        "trying": 1218,
        "birthday": 1219,
        "summer": 1220,
        "news": 1221,
        "youn": 1222,
        "dep": 1223,
        "stu": 1224,
        "ff": 1225,
        "aper": 1226,
        "dress": 1227,
        "took": 1228,
        "lunch": 1229,
        "white": 1230,
        "internet": 1231,
        "store": 1232,
        "pet": 1233,
        "list": 1234,
        "problems": 1235,
        "return": 1236,
        "married": 1237,
        "dred": 1238,
        "hundred": 1239,
        "mag": 1240,
        "wasn": 1241,
        "visit": 1242,
        "vo": 1243,
        "drive": 1244,
        "tail": 1245,
        "contr": 1246,
        "without": 1247,
        "mother": 1248,
        "products": 1249,
        "15": 1250,
        "resu": 1251,
        "fa": 1252,
        "dan": 1253,
        "ider": 1254,
        "mom": 1255,
        "least": 1256,
        "ber": 1257,
        "along": 1258,
        "quick": 1259,
        "program": 1260,
        "board": 1261,
        "ident": 1262,
        "preci": 1263,
        "books": 1264,
        "cially": 1265,
        "kets": 1266,
        "whole": 1267,
        "shopping": 1268,
        "appointment": 1269,
        "tired": 1270,
        "fif": 1271,
        "tax": 1272,
        "comple": 1273,
        "floor": 1274,
        "seven": 1275,
        "national": 1276,
        "depend": 1277,
        "ses": 1278,
        "cool": 1279,
        "black": 1280,
        "choose": 1281,
        "led": 1282,
        "couple": 1283,
        "haps": 1284,
        "perhaps": 1285,
        "feeling": 1286,
        "insur": 1287,
        "pport": 1288,
        "during": 1289,
        "raw": 1290,
        "custom": 1291,
        "forget": 1292,
        "town": 1293,
        "consider": 1294,
        "12": 1295,
        "cas": 1296,
        "iet": 1297,
        "either": 1298,
        "says": 1299,
        "living": 1300,
        "solut": 1301,
        "oper": 1302,
        "box": 1303,
        "personal": 1304,
        "face": 1305,
        "oked": 1306,
        "appreci": 1307,
        "tw": 1308,
        "land": 1309,
        "exercise": 1310,
        "respon": 1311,
        "arri": 1312,
        "favorite": 1313,
        "speaking": 1314,
        "weight": 1315,
        "ize": 1316,
        "whe": 1317,
        "chang": 1318,
        "foreign": 1319,
        "insurance": 1320,
        "thirty": 1321,
        "ility": 1322,
        "conven": 1323,
        "zy": 1324,
        "rel": 1325,
        "eight": 1326,
        "chance": 1327,
        "fully": 1328,
        "window": 1329,
        "jor": 1330,
        "mod": 1331,
        "receive": 1332,
        "ions": 1333,
        "cup": 1334,
        "rate": 1335,
        "mit": 1336,
        "door": 1337,
        "post": 1338,
        "ication": 1339,
        "boy": 1340,
        "college": 1341,
        "trouble": 1342,
        "twent": 1343,
        "satur": 1344,
        "twenty": 1345,
        "seem": 1346,
        "ately": 1347,
        "chen": 1348,
        "law": 1349,
        "espe": 1350,
        "bot": 1351,
        "supposed": 1352,
        "difficult": 1353,
        "tra": 1354,
        "includ": 1355,
        "especially": 1356,
        "requ": 1357,
        "sche": 1358,
        "catch": 1359,
        "american": 1360,
        "salary": 1361,
        "takes": 1362,
        "pleasure": 1363,
        "besides": 1364,
        "letter": 1365,
        "green": 1366,
        "excell": 1367,
        "fact": 1368,
        "excellent": 1369,
        "waiting": 1370,
        "condition": 1371,
        "lt": 1372,
        "key": 1373,
        "mas": 1374,
        "rooms": 1375,
        "tried": 1376,
        "building": 1377,
        "ping": 1378,
        "ween": 1379,
        "prov": 1380,
        "rence": 1381,
        "nor": 1382,
        "mes": 1383,
        "chick": 1384,
        "defin": 1385,
        "worked": 1386,
        "langu": 1387,
        "exp": 1388,
        "guy": 1389,
        "madam": 1390,
        "pur": 1391,
        "appl": 1392,
        "sick": 1393,
        "decided": 1394,
        "ator": 1395,
        "ines": 1396,
        "chr": 1397,
        "past": 1398,
        "fish": 1399,
        "fair": 1400,
        "father": 1401,
        "ister": 1402,
        "orts": 1403,
        "ling": 1404,
        "adv": 1405,
        "means": 1406,
        "smoking": 1407,
        "ness": 1408,
        "definite": 1409,
        "pot": 1410,
        "employe": 1411,
        "questions": 1412,
        "anta": 1413,
        "single": 1414,
        "recent": 1415,
        "quality": 1416,
        "saturday": 1417,
        "igh": 1418,
        "medi": 1419,
        "major": 1420,
        "cook": 1421,
        "wash": 1422,
        "ature": 1423,
        "paid": 1424,
        "test": 1425,
        "dish": 1426,
        "rela": 1427,
        "gener": 1428,
        "relax": 1429,
        "mer": 1430,
        "goes": 1431,
        "ject": 1432,
        "between": 1433,
        "gs": 1434,
        "io": 1435,
        "ins": 1436,
        "teen": 1437,
        "shop": 1438,
        "suggest": 1439,
        "machine": 1440,
        "swi": 1441,
        "apply": 1442,
        "contract": 1443,
        "appreciate": 1444,
        "pract": 1445,
        "wall": 1446,
        "holi": 1447,
        "sale": 1448,
        "promis": 1449,
        "pair": 1450,
        "terrible": 1451,
        "young": 1452,
        "da": 1453,
        "fall": 1454,
        "winter": 1455,
        "gradu": 1456,
        "popular": 1457,
        "chicken": 1458,
        "asked": 1459,
        "vacation": 1460,
        "ont": 1461,
        "mine": 1462,
        "forgot": 1463,
        "outside": 1464,
        "arr": 1465,
        "type": 1466,
        "close": 1467,
        "follow": 1468,
        "hus": 1469,
        "traf": 1470,
        "100": 1471,
        "report": 1472,
        "husband": 1473,
        "kit": 1474,
        "wine": 1475,
        "traffic": 1476,
        "met": 1477,
        "needs": 1478,
        "dance": 1479,
        "attend": 1480,
        "ial": 1481,
        "cop": 1482,
        "vir": 1483,
        "partic": 1484,
        "forward": 1485,
        "suppose": 1486,
        "eng": 1487,
        "super": 1488,
        "foot": 1489,
        "esday": 1490,
        "ire": 1491,
        "pho": 1492,
        "ahead": 1493,
        "kids": 1494,
        "style": 1495,
        "absolut": 1496,
        "front": 1497,
        "absolute": 1498,
        "aw": 1499,
        "tele": 1500,
        "deli": 1501,
        "finished": 1502,
        "using": 1503,
        "finish": 1504,
        "ative": 1505,
        "publ": 1506,
        "teacher": 1507,
        "extra": 1508,
        "hate": 1509,
        "uc": 1510,
        "join": 1511,
        "schedu": 1512,
        "sof": 1513,
        "profess": 1514,
        "thous": 1515,
        "kinds": 1516,
        "fix": 1517,
        "definitely": 1518,
        "fresh": 1519,
        "pin": 1520,
        "lose": 1521,
        "transfer": 1522,
        "honest": 1523,
        "thousand": 1524,
        "gets": 1525,
        "rib": 1526,
        "accor": 1527,
        "cam": 1528,
        "receip": 1529,
        "stuff": 1530,
        "cks": 1531,
        "concer": 1532,
        "absolutely": 1533,
        "yor": 1534,
        "fort": 1535,
        "reading": 1536,
        "veget": 1537,
        "gan": 1538,
        "velo": 1539,
        "200": 1540,
        "discus": 1541,
        "suc": 1542,
        "stead": 1543,
        "prepare": 1544,
        "plac": 1545,
        "online": 1546,
        "lucky": 1547,
        "syste": 1548,
        "playing": 1549,
        "arch": 1550,
        "dar": 1551,
        "dad": 1552,
        "total": 1553,
        "oc": 1554,
        "vert": 1555,
        "gif": 1556,
        "dry": 1557,
        "lea": 1558,
        "mid": 1559,
        "station": 1560,
        "ield": 1561,
        "taken": 1562,
        "ub": 1563,
        "fig": 1564,
        "manage": 1565,
        "var": 1566,
        "dro": 1567,
        "pol": 1568,
        "mov": 1569,
        "temp": 1570,
        "monday": 1571,
        "ross": 1572,
        "tickets": 1573,
        "tific": 1574,
        "clear": 1575,
        "address": 1576,
        "brother": 1577,
        "ier": 1578,
        "len": 1579,
        "cover": 1580,
        "movies": 1581,
        "ming": 1582,
        "gar": 1583,
        "nty": 1584,
        "amount": 1585,
        "lon": 1586,
        "eyes": 1587,
        "step": 1588,
        "decis": 1589,
        "sports": 1590,
        "shir": 1591,
        "stra": 1592,
        "flow": 1593,
        "fl": 1594,
        "ties": 1595,
        "tern": 1596,
        "double": 1597,
        "sand": 1598,
        "seeing": 1599,
        "ures": 1600,
        "docu": 1601,
        "america": 1602,
        "straight": 1603,
        "ob": 1604,
        "ied": 1605,
        "gone": 1606,
        "ables": 1607,
        "york": 1608,
        "cap": 1609,
        "convenient": 1610,
        "recently": 1611,
        "field": 1612,
        "wan": 1613,
        "grand": 1614,
        "instead": 1615,
        "tention": 1616,
        "countries": 1617,
        "complete": 1618,
        "ford": 1619,
        "ili": 1620,
        "nine": 1621,
        "pped": 1622,
        "sage": 1623,
        "choice": 1624,
        "shoes": 1625,
        "design": 1626,
        "advert": 1627,
        "discount": 1628,
        "receipt": 1629,
        "goods": 1630,
        "web": 1631,
        "anyone": 1632,
        "fash": 1633,
        "current": 1634,
        "ual": 1635,
        "que": 1636,
        "draw": 1637,
        "passport": 1638,
        "ouch": 1639,
        "worth": 1640,
        "ills": 1641,
        "planning": 1642,
        "econ": 1643,
        "watching": 1644,
        "games": 1645,
        "photo": 1646,
        "ude": 1647,
        "conf": 1648,
        "hurry": 1649,
        "kitchen": 1650,
        "hor": 1651,
        "vel": 1652,
        "bath": 1653,
        "jan": 1654,
        "mount": 1655,
        "christ": 1656,
        "ants": 1657,
        "famous": 1658,
        "inve": 1659,
        "detail": 1660,
        "system": 1661,
        "leaving": 1662,
        "wants": 1663,
        "baby": 1664,
        "25": 1665,
        "student": 1666,
        "surpr": 1667,
        "ulations": 1668,
        "medic": 1669,
        "according": 1670,
        "log": 1671,
        "become": 1672,
        "jack": 1673,
        "others": 1674,
        "honey": 1675,
        "breakfast": 1676,
        "promo": 1677,
        "ground": 1678,
        "develo": 1679,
        "fashion": 1680,
        "enter": 1681,
        "fru": 1682,
        "kidding": 1683,
        "cat": 1684,
        "pound": 1685,
        "sib": 1686,
        "taste": 1687,
        "exchange": 1688,
        "sense": 1689,
        "employees": 1690,
        "holiday": 1691,
        "cra": 1692,
        "training": 1693,
        "cing": 1694,
        "ric": 1695,
        "bal": 1696,
        "gent": 1697,
        "firm": 1698,
        "mum": 1699,
        "sister": 1700,
        "ann": 1701,
        "mic": 1702,
        "lead": 1703,
        "lots": 1704,
        "brown": 1705,
        "cked": 1706,
        "recor": 1707,
        "soup": 1708,
        "opport": 1709,
        "opportun": 1710,
        "blue": 1711,
        "language": 1712,
        "save": 1713,
        "secre": 1714,
        "wedding": 1715,
        "piece": 1716,
        "schedule": 1717,
        "discuss": 1718,
        "success": 1719,
        "sel": 1720,
        "pat": 1721,
        "tech": 1722,
        "hmm": 1723,
        "handle": 1724,
        "neigh": 1725,
        "public": 1726,
        "search": 1727,
        "london": 1728,
        "stic": 1729,
        "word": 1730,
        "dam": 1731,
        "eye": 1732,
        "particular": 1733,
        "decision": 1734,
        "vern": 1735,
        "shouldn": 1736,
        "site": 1737,
        "camer": 1738,
        "desk": 1739,
        "smo": 1740,
        "compan": 1741,
        "swee": 1742,
        "running": 1743,
        "meat": 1744,
        "hang": 1745,
        "regular": 1746,
        "plenty": 1747,
        "ising": 1748,
        "area": 1749,
        "mple": 1750,
        "lovely": 1751,
        "furn": 1752,
        "educ": 1753,
        "comfor": 1754,
        "answ": 1755,
        "international": 1756,
        "lugg": 1757,
        "strong": 1758,
        "local": 1759,
        "round": 1760,
        "payment": 1761,
        "mountain": 1762,
        "tai": 1763,
        "ests": 1764,
        "writing": 1765,
        "treat": 1766,
        "whether": 1767,
        "sli": 1768,
        "tru": 1769,
        "hosp": 1770,
        "heav": 1771,
        "egg": 1772,
        "comfortable": 1773,
        "bob": 1774,
        "appe": 1775,
        "cription": 1776,
        "secret": 1777,
        "dear": 1778,
        "aff": 1779,
        "christmas": 1780,
        "win": 1781,
        "song": 1782,
        "exciting": 1783,
        "ific": 1784,
        "libr": 1785,
        "counter": 1786,
        "prices": 1787,
        "direct": 1788,
        "depends": 1789,
        "club": 1790,
        "invest": 1791,
        "grow": 1792,
        "fren": 1793,
        "luggage": 1794,
        "perfor": 1795,
        "newsp": 1796,
        "serv": 1797,
        "necess": 1798,
        "mention": 1799,
        "students": 1800,
        "newspaper": 1801,
        "action": 1802,
        "grap": 1803,
        "advice": 1804,
        "places": 1805,
        "crazy": 1806,
        "hospital": 1807,
        "french": 1808,
        "icy": 1809,
        "carry": 1810,
        "companies": 1811,
        "os": 1812,
        "god": 1813,
        "plain": 1814,
        "sort": 1815,
        "ressed": 1816,
        "govern": 1817,
        "rect": 1818,
        "mark": 1819,
        "uture": 1820,
        "library": 1821,
        "heart": 1822,
        "supp": 1823,
        "grat": 1824,
        "studying": 1825,
        "intro": 1826,
        "future": 1827,
        "fly": 1828,
        "mill": 1829,
        "finally": 1830,
        "driving": 1831,
        "goodbye": 1832,
        "afford": 1833,
        "longer": 1834,
        "polic": 1835,
        "contin": 1836,
        "attention": 1837,
        "medicine": 1838,
        "tiv": 1839,
        "cell": 1840,
        "example": 1841,
        "football": 1842,
        "gi": 1843,
        "pan": 1844,
        "plane": 1845,
        "film": 1846,
        "application": 1847,
        "correct": 1848,
        "loan": 1849,
        "bene": 1850,
        "ture": 1851,
        "eating": 1852,
        "decide": 1853,
        "erature": 1854,
        "star": 1855,
        "delic": 1856,
        "contact": 1857,
        "organ": 1858,
        "brand": 1859,
        "taxi": 1860,
        "gift": 1861,
        "19": 1862,
        "roll": 1863,
        "acc": 1864,
        "works": 1865,
        "itional": 1866,
        "promise": 1867,
        "dy": 1868,
        "hit": 1869,
        "mming": 1870,
        "non": 1871,
        "beer": 1872,
        "den": 1873,
        "nel": 1874,
        "stick": 1875,
        "section": 1876,
        "police": 1877,
        "message": 1878,
        "amaz": 1879,
        "quickly": 1880,
        "develop": 1881,
        "40": 1882,
        "aught": 1883,
        "staff": 1884,
        "ically": 1885,
        "jap": 1886,
        "cards": 1887,
        "wondering": 1888,
        "magaz": 1889,
        "japan": 1890,
        "lad": 1891,
        "mission": 1892,
        "heavy": 1893,
        "lin": 1894,
        "notice": 1895,
        "conne": 1896,
        "squ": 1897,
        "gree": 1898,
        "glass": 1899,
        "plans": 1900,
        "airport": 1901,
        "healthy": 1902,
        "arrange": 1903,
        "government": 1904,
        "bi": 1905,
        "base": 1906,
        "match": 1907,
        "classes": 1908,
        "bedroom": 1909,
        "worried": 1910,
        "touch": 1911,
        "pm": 1912,
        "bur": 1913,
        "ched": 1914,
        "asking": 1915,
        "careful": 1916,
        "girls": 1917,
        "quiet": 1918,
        "simple": 1919,
        "satis": 1920,
        "performan": 1921,
        "allow": 1922,
        "riend": 1923,
        "cars": 1924,
        "buying": 1925,
        "congrat": 1926,
        "dog": 1927,
        "tee": 1928,
        "percent": 1929,
        "elec": 1930,
        "priv": 1931,
        "project": 1932,
        "vegetables": 1933,
        "answer": 1934,
        "swimming": 1935,
        "11": 1936,
        "reli": 1937,
        "ught": 1938,
        "mrs": 1939,
        "stru": 1940,
        "whatever": 1941,
        "girlf": 1942,
        "sunday": 1943,
        "girlfriend": 1944,
        "ised": 1945,
        "flu": 1946,
        "higher": 1947,
        "difference": 1948,
        "envir": 1949,
        "picture": 1950,
        "environ": 1951,
        "dre": 1952,
        "ons": 1953,
        "hind": 1954,
        "state": 1955,
        "cream": 1956,
        "fortun": 1957,
        "details": 1958,
        "amazing": 1959,
        "knew": 1960,
        "provide": 1961,
        "ges": 1962,
        "rid": 1963,
        "ext": 1964,
        "mate": 1965,
        "stock": 1966,
        "impro": 1967,
        "history": 1968,
        "ded": 1969,
        "uce": 1970,
        "tors": 1971,
        "fruit": 1972,
        "environment": 1973,
        "dut": 1974,
        "fur": 1975,
        "slow": 1976,
        "guys": 1977,
        "latest": 1978,
        "introdu": 1979,
        "learned": 1980,
        "san": 1981,
        "loc": 1982,
        "within": 1983,
        "corner": 1984,
        "excited": 1985,
        "18": 1986,
        "pes": 1987,
        "meal": 1988,
        "sco": 1989,
        "cheap": 1990,
        "safe": 1991,
        "skin": 1992,
        "neighbor": 1993,
        "sci": 1994,
        "iled": 1995,
        "trade": 1996,
        "necessary": 1997,
        "electr": 1998,
        "behind": 1999,
        "bon": 2000,
        "space": 2001,
        "final": 2002,
        "wang": 2003,
        "employ": 2004,
        "washing": 2005,
        "tuesday": 2006,
        "swe": 2007,
        "iced": 2008,
        "rol": 2009,
        "visa": 2010,
        "jim": 2011,
        "inst": 2012,
        "learning": 2013,
        "cooking": 2014,
        "suggestion": 2015,
        "words": 2016,
        "skills": 2017,
        "daught": 2018,
        "private": 2019,
        "cu": 2020,
        "gas": 2021,
        "tur": 2022,
        "ural": 2023,
        "sight": 2024,
        "saying": 2025,
        "inside": 2026,
        "costs": 2027,
        "resume": 2028,
        "ability": 2029,
        "ctions": 2030,
        "copy": 2031,
        "congratulations": 2032,
        "ride": 2033,
        "anger": 2034,
        "anim": 2035,
        "ilities": 2036,
        "received": 2037,
        "ki": 2038,
        "nic": 2039,
        "yours": 2040,
        "ustr": 2041,
        "wood": 2042,
        "cla": 2043,
        "gave": 2044,
        "happens": 2045,
        "driver": 2046,
        "enjoyed": 2047,
        "vin": 2048,
        "lier": 2049,
        "ney": 2050,
        "wom": 2051,
        "cted": 2052,
        "cake": 2053,
        "regis": 2054,
        "spring": 2055,
        "pounds": 2056,
        "performance": 2057,
        "trust": 2058,
        "mbers": 2059,
        "beach": 2060,
        "dist": 2061,
        "assist": 2062,
        "season": 2063,
        "management": 2064,
        "hai": 2065,
        "mater": 2066,
        "twice": 2067,
        "practice": 2068,
        "woman": 2069,
        "leg": 2070,
        "cel": 2071,
        "cannot": 2072,
        "third": 2073,
        "package": 2074,
        "customers": 2075,
        "selves": 2076,
        "graph": 2077,
        "dle": 2078,
        "load": 2079,
        "proper": 2080,
        "fits": 2081,
        "period": 2082,
        "oo": 2083,
        "cand": 2084,
        "lent": 2085,
        "incre": 2086,
        "ctive": 2087,
        "certific": 2088,
        "compl": 2089,
        "vous": 2090,
        "choco": 2091,
        "jobs": 2092,
        "somewhere": 2093,
        "writ": 2094,
        "usual": 2095,
        "commun": 2096,
        "uh": 2097,
        "ors": 2098,
        "ense": 2099,
        "indust": 2100,
        "howe": 2101,
        "quit": 2102,
        "appro": 2103,
        "shirt": 2104,
        "nervous": 2105,
        "however": 2106,
        "attr": 2107,
        "equ": 2108,
        "kill": 2109,
        "given": 2110,
        "dav": 2111,
        "beef": 2112,
        "milk": 2113,
        "cheaper": 2114,
        "oud": 2115,
        "ned": 2116,
        "gain": 2117,
        "anymore": 2118,
        "saving": 2119,
        "parking": 2120,
        "owed": 2121,
        "blood": 2122,
        "customer": 2123,
        "documents": 2124,
        "fortunately": 2125,
        "arm": 2126,
        "spent": 2127,
        "impress": 2128,
        "product": 2129,
        "active": 2130,
        "opin": 2131,
        "completely": 2132,
        "famili": 2133,
        "daughter": 2134,
        "fat": 2135,
        "pow": 2136,
        "ache": 2137,
        "telling": 2138,
        "500": 2139,
        "items": 2140,
        "finan": 2141,
        "center": 2142,
        "warm": 2143,
        "express": 2144,
        "dishes": 2145,
        "delivery": 2146,
        "sme": 2147,
        "tire": 2148,
        "div": 2149,
        "subway": 2150,
        "fanta": 2151,
        "delicious": 2152,
        "fantastic": 2153,
        "ba": 2154,
        "eu": 2155,
        "icle": 2156,
        "apo": 2157,
        "consu": 2158,
        "overtime": 2159,
        "policy": 2160,
        "nat": 2161,
        "brought": 2162,
        "salad": 2163,
        "pressure": 2164,
        "diet": 2165,
        "dark": 2166,
        "further": 2167,
        "control": 2168,
        "issu": 2169,
        "liked": 2170,
        "sil": 2171,
        "gage": 2172,
        "gym": 2173,
        "booked": 2174,
        "relation": 2175,
        "camera": 2176,
        "mac": 2177,
        "willing": 2178,
        "due": 2179,
        "checking": 2180,
        "flowers": 2181,
        "services": 2182,
        "grou": 2183,
        "factory": 2184,
        "explain": 2185,
        "accident": 2186,
        "zen": 2187,
        "against": 2188,
        "dollar": 2189,
        "lately": 2190,
        "figure": 2191,
        "snow": 2192,
        "sam": 2193,
        "shang": 2194,
        "drinks": 2195,
        "states": 2196,
        "require": 2197,
        "16": 2198,
        "except": 2199,
        "lts": 2200,
        "norm": 2201,
        "telephone": 2202,
        "ings": 2203,
        "tall": 2204,
        "note": 2205,
        "urs": 2206,
        "menu": 2207,
        "stress": 2208,
        "corpor": 2209,
        "improve": 2210,
        "middle": 2211,
        "va": 2212,
        "gon": 2213,
        "ues": 2214,
        "lies": 2215,
        "unk": 2216,
        "ible": 2217,
        "charac": 2218,
        "likes": 2219,
        "pull": 2220,
        "ency": 2221,
        "logy": 2222,
        "ert": 2223,
        "ade": 2224,
        "wise": 2225,
        "share": 2226,
        "soft": 2227,
        "opportunity": 2228,
        "giving": 2229,
        "arden": 2230,
        "women": 2231,
        "cents": 2232,
        "everybody": 2233,
        "hurt": 2234,
        "courses": 2235,
        "fifteen": 2236,
        "profession": 2237,
        "sweet": 2238,
        "paying": 2239,
        "process": 2240,
        "juice": 2241,
        "cribe": 2242,
        "shanghai": 2243,
        "ato": 2244,
        "cove": 2245,
        "speed": 2246,
        "covered": 2247,
        "tie": 2248,
        "dead": 2249,
        "poor": 2250,
        "aged": 2251,
        "ban": 2252,
        "ond": 2253,
        "broke": 2254,
        "qualif": 2255,
        "checked": 2256,
        "euro": 2257,
        "lay": 2258,
        "itch": 2259,
        "worse": 2260,
        "quar": 2261,
        "keting": 2262,
        "fund": 2263,
        "tures": 2264,
        "taiwan": 2265,
        "ict": 2266,
        "poll": 2267,
        "fifty": 2268,
        "dream": 2269,
        "earlier": 2270,
        "jam": 2271,
        "inspe": 2272,
        "terms": 2273,
        "steak": 2274,
        "steven": 2275,
        "funny": 2276,
        "chocolate": 2277,
        "nis": 2278,
        "sold": 2279,
        "model": 2280,
        "bottle": 2281,
        "immedi": 2282,
        "concert": 2283,
        "david": 2284,
        "gonna": 2285,
        "mistake": 2286,
        "throw": 2287,
        "print": 2288,
        "remind": 2289,
        "moved": 2290,
        "reasonable": 2291,
        "imum": 2292,
        "pictures": 2293,
        "aret": 2294,
        "tial": 2295,
        "agreement": 2296,
        "rush": 2297,
        "mike": 2298,
        "arrive": 2299,
        "research": 2300,
        "thurs": 2301,
        "marketing": 2302,
        "ery": 2303,
        "story": 2304,
        "raise": 2305,
        "beginning": 2306,
        "zer": 2307,
        "dess": 2308,
        "player": 2309,
        "hibit": 2310,
        "fire": 2311,
        "changed": 2312,
        "drop": 2313,
        "promotion": 2314,
        "education": 2315,
        "relationship": 2316,
        "vi": 2317,
        "13": 2318,
        "tran": 2319,
        "sometime": 2320,
        "bother": 2321,
        "hong": 2322,
        "tered": 2323,
        "standard": 2324,
        "turned": 2325,
        "vision": 2326,
        "jump": 2327,
        "south": 2328,
        "flat": 2329,
        "camp": 2330,
        "truth": 2331,
        "complain": 2332,
        "rad": 2333,
        "cele": 2334,
        "common": 2335,
        "iture": 2336,
        "ience": 2337,
        "results": 2338,
        "celebr": 2339,
        "nose": 2340,
        "broken": 2341,
        "responsib": 2342,
        "square": 2343,
        "degree": 2344,
        "opinion": 2345,
        "cig": 2346,
        "vious": 2347,
        "activ": 2348,
        "temperature": 2349,
        "license": 2350,
        "ev": 2351,
        "coat": 2352,
        "oly": 2353,
        "fight": 2354,
        "bra": 2355,
        "dancing": 2356,
        "power": 2357,
        "yo": 2358,
        "wes": 2359,
        "chat": 2360,
        "keeping": 2361,
        "lower": 2362,
        "spicy": 2363,
        "24": 2364,
        "hall": 2365,
        "bri": 2366,
        "hood": 2367,
        "track": 2368,
        "memor": 2369,
        "bread": 2370,
        "mess": 2371,
        "kept": 2372,
        "huh": 2373,
        "olymp": 2374,
        "oil": 2375,
        "gest": 2376,
        "bud": 2377,
        "rich": 2378,
        "hands": 2379,
        "expected": 2380,
        "abroad": 2381,
        "jane": 2382,
        "kilo": 2383,
        "smell": 2384,
        "garden": 2385,
        "thursday": 2386,
        "ref": 2387,
        "sele": 2388,
        "surely": 2389,
        "ideas": 2390,
        "serve": 2391,
        "increase": 2392,
        "mou": 2393,
        "wake": 2394,
        "including": 2395,
        "furniture": 2396,
        "esti": 2397,
        "moving": 2398,
        "cult": 2399,
        "seats": 2400,
        "bags": 2401,
        "ized": 2402,
        "easier": 2403,
        "record": 2404,
        "traditional": 2405,
        "aran": 2406,
        "bow": 2407,
        "rout": 2408,
        "alone": 2409,
        "peter": 2410,
        "pity": 2411,
        "forty": 2412,
        "crow": 2413,
        "staying": 2414,
        "scre": 2415,
        "hung": 2416,
        "ference": 2417,
        "exhibit": 2418,
        "western": 2419,
        "za": 2420,
        "sea": 2421,
        "ints": 2422,
        "offic": 2423,
        "anywhere": 2424,
        "wards": 2425,
        "boring": 2426,
        "invol": 2427,
        "meters": 2428,
        "boxes": 2429,
        "conditions": 2430,
        "engine": 2431,
        "tennis": 2432,
        "jour": 2433,
        "knows": 2434,
        "stor": 2435,
        "idence": 2436,
        "settle": 2437,
        "earth": 2438,
        "colleag": 2439,
        "miles": 2440,
        "responsible": 2441,
        "medium": 2442,
        "sn": 2443,
        "ays": 2444,
        "fare": 2445,
        "ended": 2446,
        "illy": 2447,
        "smart": 2448,
        "support": 2449,
        "financial": 2450,
        "iety": 2451,
        "fried": 2452,
        "starting": 2453,
        "ctor": 2454,
        "career": 2455,
        "united": 2456,
        "master": 2457,
        "econom": 2458,
        "level": 2459,
        "eggs": 2460,
        "professional": 2461,
        "guaran": 2462,
        "80": 2463,
        "pper": 2464,
        "astic": 2465,
        "lights": 2466,
        "human": 2467,
        "fault": 2468,
        "allowed": 2469,
        "dou": 2470,
        "bell": 2471,
        "une": 2472,
        "neck": 2473,
        "ilt": 2474,
        "easily": 2475,
        "fied": 2476,
        "centr": 2477,
        "included": 2478,
        "graduate": 2479,
        "prescription": 2480,
        "certificate": 2481,
        "sw": 2482,
        "60": 2483,
        "oun": 2484,
        "fan": 2485,
        "rice": 2486,
        "airs": 2487,
        "urgent": 2488,
        "susan": 2489,
        "spo": 2490,
        "frank": 2491,
        "cru": 2492,
        "confirm": 2493,
        "45": 2494,
        "ris": 2495,
        "rob": 2496,
        "tration": 2497,
        "vide": 2498,
        "simp": 2499,
        "mostly": 2500,
        "shows": 2501,
        "walking": 2502,
        "computers": 2503,
        "include": 2504,
        "industry": 2505,
        "unfortunately": 2506,
        "baggage": 2507,
        "uation": 2508,
        "wast": 2509,
        "calls": 2510,
        "spec": 2511,
        "missed": 2512,
        "pieces": 2513,
        "various": 2514,
        "savings": 2515,
        "dozen": 2516,
        "dessert": 2517,
        "pal": 2518,
        "lab": 2519,
        "tight": 2520,
        "omy": 2521,
        "tast": 2522,
        "lets": 2523,
        "dig": 2524,
        "hous": 2525,
        "foods": 2526,
        "cheese": 2527,
        "collect": 2528,
        "email": 2529,
        "knowled": 2530,
        "prepared": 2531,
        "advertise": 2532,
        "channel": 2533,
        "animals": 2534,
        "stairs": 2535,
        "jen": 2536,
        "vol": 2537,
        "avo": 2538,
        "shipment": 2539,
        "chall": 2540,
        "piz": 2541,
        "looked": 2542,
        "purcha": 2543,
        "lines": 2544,
        "bathroom": 2545,
        "austr": 2546,
        "austral": 2547,
        "ni": 2548,
        "orge": 2549,
        "ril": 2550,
        "gate": 2551,
        "shar": 2552,
        "secur": 2553,
        "born": 2554,
        "tot": 2555,
        "decl": 2556,
        "monthly": 2557,
        "drinking": 2558,
        "meals": 2559,
        "scen": 2560,
        "ances": 2561,
        "compet": 2562,
        "cooper": 2563,
        "advance": 2564,
        "cigaret": 2565,
        "totally": 2566,
        "17": 2567,
        "lex": 2568,
        "anti": 2569,
        "propo": 2570,
        "spare": 2571,
        "spot": 2572,
        "website": 2573,
        "apolog": 2574,
        "natural": 2575,
        "hungry": 2576,
        "nut": 2577,
        "needed": 2578,
        "apple": 2579,
        "ists": 2580,
        "west": 2581,
        "cafe": 2582,
        "group": 2583,
        "built": 2584,
        "lie": 2585,
        "known": 2586,
        "ination": 2587,
        "muse": 2588,
        "tend": 2589,
        "wedn": 2590,
        "nobody": 2591,
        "general": 2592,
        "bonus": 2593,
        "immediately": 2594,
        "april": 2595,
        "bat": 2596,
        "till": 2597,
        "ules": 2598,
        "pool": 2599,
        "weak": 2600,
        "motor": 2601,
        "habit": 2602,
        "colors": 2603,
        "seriously": 2604,
        "passed": 2605,
        "fax": 2606,
        "deliver": 2607,
        "caught": 2608,
        "noticed": 2609,
        "doub": 2610,
        "bid": 2611,
        "cab": 2612,
        "fever": 2613,
        "east": 2614,
        "marri": 2615,
        "nights": 2616,
        "stories": 2617,
        "benefits": 2618,
        "transport": 2619,
        "wednesday": 2620,
        "ged": 2621,
        "prote": 2622,
        "plus": 2623,
        "ples": 2624,
        "cast": 2625,
        "hasn": 2626,
        "300": 2627,
        "gives": 2628,
        "tough": 2629,
        "deep": 2630,
        "played": 2631,
        "curren": 2632,
        "moder": 2633,
        "advanta": 2634,
        "withdraw": 2635,
        "guests": 2636,
        "secretary": 2637,
        "claim": 2638,
        "seas": 2639,
        "member": 2640,
        "formal": 2641,
        "ski": 2642,
        "faster": 2643,
        "experien": 2644,
        "invite": 2645,
        "bottom": 2646,
        "felt": 2647,
        "cross": 2648,
        "smoke": 2649,
        "surprised": 2650,
        "danger": 2651,
        "video": 2652,
        "55": 2653,
        "nowad": 2654,
        "term": 2655,
        "hob": 2656,
        "among": 2657,
        "dered": 2658,
        "stores": 2659,
        "useful": 2660,
        "laun": 2661,
        "basket": 2662,
        "painting": 2663,
        "economy": 2664,
        "ener": 2665,
        "tens": 2666,
        "pleasant": 2667,
        "clients": 2668,
        "successful": 2669,
        "introduce": 2670,
        "nowadays": 2671,
        "lly": 2672,
        "thor": 2673,
        "seme": 2674,
        "ches": 2675,
        "boo": 2676,
        "cock": 2677,
        "reach": 2678,
        "friendly": 2679,
        "lives": 2680,
        "ials": 2681,
        "option": 2682,
        "commission": 2683,
        "duty": 2684,
        "written": 2685,
        "14": 2686,
        "ror": 2687,
        "mand": 2688,
        "gold": 2689,
        "ped": 2690,
        "guide": 2691,
        "suits": 2692,
        "bigger": 2693,
        "borrow": 2694,
        "hoping": 2695,
        "familiar": 2696,
        "ica": 2697,
        "sitting": 2698,
        "wich": 2699,
        "effe": 2700,
        "value": 2701,
        "climb": 2702,
        "professor": 2703,
        "assistant": 2704,
        "colleagues": 2705,
        "semester": 2706,
        "gth": 2707,
        "pac": 2708,
        "cir": 2709,
        "deed": 2710,
        "paul": 2711,
        "push": 2712,
        "pizza": 2713,
        "die": 2714,
        "machin": 2715,
        "starts": 2716,
        "standing": 2717,
        "deser": 2718,
        "reserve": 2719,
        "nearly": 2720,
        "mix": 2721,
        "cases": 2722,
        "fixed": 2723,
        "currency": 2724,
        "vent": 2725,
        "rant": 2726,
        "lease": 2727,
        "dru": 2728,
        "helpful": 2729,
        "dogs": 2730,
        "sweater": 2731,
        "rules": 2732,
        "xx": 2733,
        "beat": 2734,
        "plu": 2735,
        "lap": 2736,
        "homework": 2737,
        "keeps": 2738,
        "programs": 2739,
        "magazine": 2740,
        "science": 2741,
        "divor": 2742,
        "europe": 2743,
        "campus": 2744,
        "knowledge": 2745,
        "mood": 2746,
        "tooth": 2747,
        "kong": 2748,
        "finding": 2749,
        "shape": 2750,
        "traveling": 2751,
        "arrived": 2752,
        "daily": 2753,
        "describe": 2754,
        "radio": 2755,
        "apologize": 2756,
        "90": 2757,
        "span": 2758,
        "cable": 2759,
        "invited": 2760,
        "expecting": 2761,
        "cleaning": 2762,
        "issue": 2763,
        "ks": 2764,
        "ging": 2765,
        "mob": 2766,
        "code": 2767,
        "marry": 2768,
        "achie": 2769,
        "skir": 2770,
        "production": 2771,
        "films": 2772,
        "wanna": 2773,
        "impressed": 2774,
        "cancel": 2775,
        "indeed": 2776,
        "col": 2777,
        "nego": 2778,
        "rock": 2779,
        "scare": 2780,
        "older": 2781,
        "leaves": 2782,
        "complic": 2783,
        "appli": 2784,
        "imag": 2785,
        "generally": 2786,
        "inspection": 2787,
        "activities": 2788,
        "purchase": 2789,
        "laundry": 2790,
        "negoti": 2791,
        "ran": 2792,
        "soc": 2793,
        "orig": 2794,
        "president": 2795,
        "headache": 2796,
        "shi": 2797,
        "forms": 2798,
        "shower": 2799,
        "delive": 2800,
        "export": 2801,
        "phys": 2802,
        "listening": 2803,
        "stomach": 2804,
        "tware": 2805,
        "emer": 2806,
        "advertising": 2807,
        "security": 2808,
        "marriage": 2809,
        "delivered": 2810,
        "software": 2811,
        "fing": 2812,
        "tes": 2813,
        "lim": 2814,
        "visiting": 2815,
        "itude": 2816,
        "based": 2817,
        "located": 2818,
        "suggestions": 2819,
        "mobile": 2820,
        "rose": 2821,
        "loy": 2822,
        "suf": 2823,
        "fell": 2824,
        "fees": 2825,
        "bright": 2826,
        "tree": 2827,
        "swim": 2828,
        "across": 2829,
        "japanese": 2830,
        "doubt": 2831,
        "wat": 2832,
        "heat": 2833,
        "ley": 2834,
        "owe": 2835,
        "hill": 2836,
        "toast": 2837,
        "emb": 2838,
        "page": 2839,
        "nearby": 2840,
        "boyfriend": 2841,
        "organiz": 2842,
        "otherwise": 2843,
        "screen": 2844,
        "simply": 2845,
        "waste": 2846,
        "spanish": 2847,
        "origin": 2848,
        "iv": 2849,
        "cc": 2850,
        "23": 2851,
        "pleased": 2852,
        "helps": 2853,
        "workers": 2854,
        "buses": 2855,
        "loves": 2856,
        "file": 2857,
        "press": 2858,
        "crit": 2859,
        "jects": 2860,
        "suitable": 2861,
        "sugar": 2862,
        "sauce": 2863,
        "bargain": 2864,
        "mouth": 2865,
        "silly": 2866,
        "plastic": 2867,
        "machines": 2868,
        "imagine": 2869,
        "ior": 2870,
        "ises": 2871,
        "bac": 2872,
        "stam": 2873,
        "bran": 2874,
        "accounting": 2875,
        "opening": 2876,
        "understanding": 2877,
        "effic": 2878,
        "huge": 2879,
        "range": 2880,
        "roses": 2881,
        "changes": 2882,
        "bike": 2883,
        "instru": 2884,
        "numbers": 2885,
        "pollut": 2886,
        "guarantee": 2887,
        "situation": 2888,
        "specific": 2889,
        "modern": 2890,
        "sandwich": 2891,
        "ina": 2892,
        "bly": 2893,
        "chur": 2894,
        "stup": 2895,
        "everyday": 2896,
        "toms": 2897,
        "upset": 2898,
        "smaller": 2899,
        "wearing": 2900,
        "directly": 2901,
        "retire": 2902,
        "complicated": 2903,
        "ls": 2904,
        "held": 2905,
        "lam": 2906,
        "lend": 2907,
        "aft": 2908,
        "agre": 2909,
        "ently": 2910,
        "everywhere": 2911,
        "parts": 2912,
        "himself": 2913,
        "schools": 2914,
        "feet": 2915,
        "bills": 2916,
        "hurts": 2917,
        "commer": 2918,
        "yellow": 2919,
        "graduated": 2920,
        "background": 2921,
        "possib": 2922,
        "continue": 2923,
        "basically": 2924,
        "agency": 2925,
        "em": 2926,
        "meas": 2927,
        "rup": 2928,
        "decor": 2929,
        "closed": 2930,
        "respect": 2931,
        "selling": 2932,
        "paint": 2933,
        "document": 2934,
        "balance": 2935,
        "strict": 2936,
        "television": 2937,
        "avoid": 2938,
        "australia": 2939,
        "stupid": 2940,
        "rare": 2941,
        "unt": 2942,
        "cture": 2943,
        "button": 2944,
        "effect": 2945,
        "travell": 2946,
        "limit": 2947,
        "photos": 2948,
        "damage": 2949,
        "turning": 2950,
        "attractive": 2951,
        "festi": 2952,
        "basketball": 2953,
        "festival": 2954,
        "tit": 2955,
        "ais": 2956,
        "ying": 2957,
        "sar": 2958,
        "wide": 2959,
        "hire": 2960,
        "cul": 2961,
        "ners": 2962,
        "stayed": 2963,
        "social": 2964,
        "champ": 2965,
        "strange": 2966,
        "surprise": 2967,
        "magazines": 2968,
        "equip": 2969,
        "minimum": 2970,
        "materials": 2971,
        "church": 2972,
        "gn": 2973,
        "ko": 2974,
        "ugh": 2975,
        "ads": 2976,
        "canad": 2977,
        "jud": 2978,
        "feels": 2979,
        "annu": 2980,
        "ports": 2981,
        "quet": 2982,
        "languages": 2983,
        "development": 2984,
        "electric": 2985,
        "biggest": 2986,
        "involved": 2987,
        "dangerous": 2988,
        "nal": 2989,
        "ared": 2990,
        "scar": 2991,
        "angry": 2992,
        "noise": 2993,
        "flying": 2994,
        "museum": 2995,
        "ga": 2996,
        "itation": 2997,
        "ired": 2998,
        "harder": 2999,
        "letters": 3000,
        "million": 3001,
        "achieve": 3002,
        "scared": 3003,
        "bear": 3004,
        "ben": 3005,
        "mall": 3006,
        "math": 3007,
        "roast": 3008,
        "redu": 3009,
        "helping": 3010,
        "gers": 3011,
        "brit": 3012,
        "scr": 3013,
        "medical": 3014,
        "cute": 3015,
        "lative": 3016,
        "carefully": 3017,
        "subject": 3018,
        "repair": 3019,
        "lady": 3020,
        "loud": 3021,
        "crowded": 3022,
        "points": 3023,
        "ens": 3024,
        "stri": 3025,
        "uses": 3026,
        "text": 3027,
        "keys": 3028,
        "italian": 3029,
        "simil": 3030,
        "younger": 3031,
        "north": 3032,
        "ourselves": 3033,
        "similar": 3034,
        "hy": 3035,
        "zz": 3036,
        "sep": 3037,
        "tim": 3038,
        "sud": 3039,
        "ames": 3040,
        "amed": 3041,
        "dest": 3042,
        "aches": 3043,
        "lake": 3044,
        "paris": 3045,
        "lived": 3046,
        "review": 3047,
        "uncle": 3048,
        "orange": 3049,
        "150": 3050,
        "octo": 3051,
        "digital": 3052,
        "ordered": 3053,
        "sudden": 3054,
        "october": 3055,
        "dom": 3056,
        "sour": 3057,
        "helped": 3058,
        "mbur": 3059,
        "guest": 3060,
        "itor": 3061,
        "acket": 3062,
        "positive": 3063,
        "orders": 3064,
        "german": 3065,
        "somebody": 3066,
        "solve": 3067,
        "elev": 3068,
        "files": 3069,
        "packing": 3070,
        "basic": 3071,
        "vote": 3072,
        "occas": 3073,
        "charges": 3074,
        "extreme": 3075,
        "character": 3076,
        "potato": 3077,
        "delay": 3078,
        "registered": 3079,
        "budget": 3080,
        "warrant": 3081,
        "21": 3082,
        "ome": 3083,
        "tery": 3084,
        "lind": 3085,
        "cart": 3086,
        "regard": 3087,
        "univer": 3088,
        "cities": 3089,
        "valu": 3090,
        "voice": 3091,
        "downtown": 3092,
        "score": 3093,
        "exhibition": 3094,
        "director": 3095,
        "challeng": 3096,
        "overseas": 3097,
        "emergen": 3098,
        "aisle": 3099,
        "relative": 3100,
        "spir": 3101,
        "cies": 3102,
        "bak": 3103,
        "twel": 3104,
        "mates": 3105,
        "breath": 3106,
        "mountains": 3107,
        "qualified": 3108,
        "neighborhood": 3109,
        "demand": 3110,
        "unemp": 3111,
        "elevator": 3112,
        "twelve": 3113,
        "unemploy": 3114,
        "unemployment": 3115,
        "ering": 3116,
        "bru": 3117,
        "aud": 3118,
        "putting": 3119,
        "shot": 3120,
        "hardly": 3121,
        "ordin": 3122,
        "unless": 3123,
        "supermarket": 3124,
        "studied": 3125,
        "distance": 3126,
        "candid": 3127,
        "impression": 3128,
        "normal": 3129,
        "corporation": 3130,
        "celebrate": 3131,
        "lee": 3132,
        "fed": 3133,
        "gra": 3134,
        "gging": 3135,
        "accounts": 3136,
        "ached": 3137,
        "classical": 3138,
        "june": 3139,
        "pressed": 3140,
        "pian": 3141,
        "boarding": 3142,
        "techno": 3143,
        "conference": 3144,
        "satisfied": 3145,
        "ison": 3146,
        "ham": 3147,
        "thro": 3148,
        "glo": 3149,
        "notes": 3150,
        "ques": 3151,
        "iling": 3152,
        "waiter": 3153,
        "chair": 3154,
        "terrific": 3155,
        "direction": 3156,
        "darling": 3157,
        "legal": 3158,
        "refund": 3159,
        "variety": 3160,
        "watched": 3161,
        "terribly": 3162,
        "annual": 3163,
        "26": 3164,
        "nan": 3165,
        "tar": 3166,
        "gee": 3167,
        "gust": 3168,
        "ury": 3169,
        "mul": 3170,
        "encour": 3171,
        "polit": 3172,
        "talked": 3173,
        "blow": 3174,
        "dial": 3175,
        "separ": 3176,
        "prepar": 3177,
        "brea": 3178,
        "filled": 3179,
        "autom": 3180,
        "realize": 3181,
        "virus": 3182,
        "silk": 3183,
        "extens": 3184,
        "zes": 3185,
        "anytime": 3186,
        "boat": 3187,
        "income": 3188,
        "acting": 3189,
        "compe": 3190,
        "comb": 3191,
        "sca": 3192,
        "weren": 3193,
        "beauty": 3194,
        "windows": 3195,
        "opportunities": 3196,
        "tests": 3197,
        "article": 3198,
        "lob": 3199,
        "asle": 3200,
        "becoming": 3201,
        "neither": 3202,
        "carpet": 3203,
        "employee": 3204,
        "promised": 3205,
        "parties": 3206,
        "quarter": 3207,
        "registration": 3208,
        "jenny": 3209,
        "asleep": 3210,
        "lia": 3211,
        "alco": 3212,
        "iden": 3213,
        "moon": 3214,
        "shut": 3215,
        "iel": 3216,
        "typ": 3217,
        "anci": 3218,
        "wrap": 3219,
        "stren": 3220,
        "venir": 3221,
        "meetings": 3222,
        "although": 3223,
        "exams": 3224,
        "papers": 3225,
        "ients": 3226,
        "changing": 3227,
        "awful": 3228,
        "relig": 3229,
        "picnic": 3230,
        "central": 3231,
        "alcoho": 3232,
        "ancient": 3233,
        "souvenir": 3234,
        "gri": 3235,
        "river": 3236,
        "gam": 3237,
        "unit": 3238,
        "map": 3239,
        "hael": 3240,
        "agent": 3241,
        "offers": 3242,
        "brid": 3243,
        "admin": 3244,
        "stops": 3245,
        "icles": 3246,
        "grade": 3247,
        "reception": 3248,
        "difficul": 3249,
        "entertain": 3250,
        "36": 3251,
        "isy": 3252,
        "wet": 3253,
        "gro": 3254,
        "abo": 3255,
        "nur": 3256,
        "cry": 3257,
        "estab": 3258,
        "prin": 3259,
        "gotten": 3260,
        "refri": 3261,
        "leather": 3262,
        "choices": 3263,
        "accepted": 3264,
        "horri": 3265,
        "tastes": 3266,
        "energy": 3267,
        "septe": 3268,
        "emergency": 3269,
        "refriger": 3270,
        "horrible": 3271,
        "september": 3272,
        "dor": 3273,
        "ston": 3274,
        "coke": 3275,
        "antic": 3276,
        "ima": 3277,
        "cine": 3278,
        "ulous": 3279,
        "argu": 3280,
        "stood": 3281,
        "france": 3282,
        "trains": 3283,
        "americans": 3284,
        "etc": 3285,
        "admit": 3286,
        "includes": 3287,
        "request": 3288,
        "register": 3289,
        "laptop": 3290,
        "agreed": 3291,
        "occasion": 3292,
        "throat": 3293,
        "michael": 3294,
        "pi": 3295,
        "atic": 3296,
        "alo": 3297,
        "fries": 3298,
        "assign": 3299,
        "tribut": 3300,
        "convers": 3301,
        "larger": 3302,
        "torna": 3303,
        "block": 3304,
        "aware": 3305,
        "types": 3306,
        "photograph": 3307,
        "responsibility": 3308,
        "snack": 3309,
        "monica": 3310,
        "draft": 3311,
        "refrigerator": 3312,
        "gun": 3313,
        "manu": 3314,
        "highly": 3315,
        "sky": 3316,
        "access": 3317,
        "events": 3318,
        "anni": 3319,
        "ladies": 3320,
        "vacan": 3321,
        "journey": 3322,
        "attitude": 3323,
        "laugh": 3324,
        "van": 3325,
        "hat": 3326,
        "veh": 3327,
        "gal": 3328,
        "lip": 3329,
        "bun": 3330,
        "max": 3331,
        "plant": 3332,
        "fered": 3333,
        "cheer": 3334,
        "sites": 3335,
        "england": 3336,
        "july": 3337,
        "suitcase": 3338,
        "client": 3339,
        "stuck": 3340,
        "stopped": 3341,
        "casual": 3342,
        "appear": 3343,
        "climate": 3344,
        "concerned": 3345,
        "ware": 3346,
        "ood": 3347,
        "ours": 3348,
        "thom": 3349,
        "fool": 3350,
        "cycle": 3351,
        "passen": 3352,
        "calm": 3353,
        "commit": 3354,
        "related": 3355,
        "appeti": 3356,
        "talent": 3357,
        "charged": 3358,
        "canada": 3359,
        "seaf": 3360,
        "seafood": 3361,
        "oth": 3362,
        "toi": 3363,
        "stre": 3364,
        "aller": 3365,
        "coll": 3366,
        "iding": 3367,
        "sad": 3368,
        "stone": 3369,
        "phi": 3370,
        "agne": 3371,
        "kick": 3372,
        "cloth": 3373,
        "nue": 3374,
        "bling": 3375,
        "shops": 3376,
        "cakes": 3377,
        "tles": 3378,
        "focus": 3379,
        "centre": 3380,
        "incred": 3381,
        "120": 3382,
        "frequ": 3383,
        "dressing": 3384,
        "clearly": 3385,
        "impressive": 3386,
        "george": 3387,
        "author": 3388,
        "cigarettes": 3389,
        "ordinary": 3390,
        "manufact": 3391,
        "thin": 3392,
        "vit": 3393,
        "roy": 3394,
        "meter": 3395,
        "resour": 3396,
        "nast": 3397,
        "renew": 3398,
        "rail": 3399,
        "arrest": 3400,
        "mmm": 3401,
        "expenses": 3402,
        "relaxed": 3403,
        "wallet": 3404,
        "blocks": 3405,
        "furnished": 3406,
        "install": 3407,
        "previous": 3408,
        "olympic": 3409,
        "linda": 3410,
        "ya": 3411,
        "anc": 3412,
        "init": 3413,
        "mex": 3414,
        "entr": 3415,
        "pose": 3416,
        "host": 3417,
        "checks": 3418,
        "zhou": 3419,
        "umn": 3420,
        "dining": 3421,
        "restaurants": 3422,
        "seller": 3423,
        "styles": 3424,
        "profit": 3425,
        "holidays": 3426,
        "copies": 3427,
        "slip": 3428,
        "houses": 3429,
        "esome": 3430,
        "strength": 3431,
        "annivers": 3432,
        "mexic": 3433,
        "entrance": 3434,
        "autumn": 3435,
        "sl": 3436,
        "zing": 3437,
        "stat": 3438,
        "proof": 3439,
        "tions": 3440,
        "dent": 3441,
        "theater": 3442,
        "replace": 3443,
        "broad": 3444,
        "cousin": 3445,
        "perfectly": 3446,
        "jones": 3447,
        "rule": 3448,
        "independ": 3449,
        "bucks": 3450,
        "gifts": 3451,
        "richard": 3452,
        "records": 3453,
        "material": 3454,
        "characters": 3455,
        "78": 3456,
        "butter": 3457,
        "shy": 3458,
        "exper": 3459,
        "brow": 3460,
        "peace": 3461,
        "showing": 3462,
        "ips": 3463,
        "perfu": 3464,
        "personally": 3465,
        "losing": 3466,
        "produce": 3467,
        "jeans": 3468,
        "auto": 3469,
        "offices": 3470,
        "sixty": 3471,
        "teria": 3472,
        "johnson": 3473,
        "commod": 3474,
        "applying": 3475,
        "falling": 3476,
        "figures": 3477,
        "dressed": 3478,
        "connection": 3479,
        "members": 3480,
        "themselves": 3481,
        "communic": 3482,
        "convenience": 3483,
        "settled": 3484,
        "baker": 3485,
        "catalo": 3486,
        "anniversary": 3487,
        "75": 3488,
        "tan": 3489,
        "dat": 3490,
        "ler": 3491,
        "quant": 3492,
        "assure": 3493,
        "suite": 3494,
        "ured": 3495,
        "ingred": 3496,
        "bie": 3497,
        "trick": 3498,
        "verage": 3499,
        "loans": 3500,
        "gress": 3501,
        "pardon": 3502,
        "singing": 3503,
        "boys": 3504,
        "sides": 3505,
        "relaxing": 3506,
        "novel": 3507,
        "zhang": 3508,
        "impos": 3509,
        "supplies": 3510,
        "obvious": 3511,
        "transportation": 3512,
        "pollution": 3513,
        "equipment": 3514,
        "contribut": 3515,
        "impossible": 3516,
        "ai": 3517,
        "cd": 3518,
        "vey": 3519,
        "bec": 3520,
        "wild": 3521,
        "rus": 3522,
        "chess": 3523,
        "vill": 3524,
        "stars": 3525,
        "missing": 3526,
        "hum": 3527,
        "weekends": 3528,
        "basis": 3529,
        "trees": 3530,
        "straw": 3531,
        "soda": 3532,
        "continu": 3533,
        "literature": 3534,
        "culture": 3535,
        "daniel": 3536,
        "typical": 3537,
        "noisy": 3538,
        "70": 3539,
        "goal": 3540,
        "ined": 3541,
        "alice": 3542,
        "plate": 3543,
        "aging": 3544,
        "fol": 3545,
        "joe": 3546,
        "umb": 3547,
        "ears": 3548,
        "mony": 3549,
        "players": 3550,
        "units": 3551,
        "opened": 3552,
        "appointed": 3553,
        "traveler": 3554,
        "served": 3555,
        "teams": 3556,
        "shirts": 3557,
        "flower": 3558,
        "glasses": 3559,
        "taught": 3560,
        "slowly": 3561,
        "requirements": 3562,
        "flex": 3563,
        "retirement": 3564,
        "commercial": 3565,
        "volunt": 3566,
        "cinema": 3567,
        "thomas": 3568,
        "ingredients": 3569,
        "volunte": 3570,
        "ism": 3571,
        "lid": 3572,
        "tip": 3573,
        "lily": 3574,
        "lun": 3575,
        "ends": 3576,
        "compli": 3577,
        "shelf": 3578,
        "dump": 3579,
        "loved": 3580,
        "lift": 3581,
        "lucy": 3582,
        "fail": 3583,
        "seemed": 3584,
        "pork": 3585,
        "represent": 3586,
        "permit": 3587,
        "atures": 3588,
        "reduce": 3589,
        "electron": 3590,
        "announ": 3591,
        "advertisement": 3592,
        "advantage": 3593,
        "invitation": 3594,
        "james": 3595,
        "warranty": 3596,
        "bridge": 3597,
        "champagne": 3598,
        "ii": 3599,
        "seve": 3600,
        "tay": 3601,
        "bies": 3602,
        "meaning": 3603,
        "died": 3604,
        "rise": 3605,
        "stations": 3606,
        "network": 3607,
        "inviting": 3608,
        "apped": 3609,
        "remain": 3610,
        "tourist": 3611,
        "anced": 3612,
        "stolen": 3613,
        "queen": 3614,
        "cameras": 3615,
        "songs": 3616,
        "transaction": 3617,
        "safety": 3618,
        "download": 3619,
        "responsibilities": 3620,
        "declare": 3621,
        "efficient": 3622,
        "smooth": 3623,
        "taylor": 3624,
        "atm": 3625,
        "ake": 3626,
        "wil": 3627,
        "rot": 3628,
        "tian": 3629,
        "tab": 3630,
        "oken": 3631,
        "spl": 3632,
        "shine": 3633,
        "coast": 3634,
        "aries": 3635,
        "accountant": 3636,
        "added": 3637,
        "spending": 3638,
        "subs": 3639,
        "maintain": 3640,
        "fishing": 3641,
        "legs": 3642,
        "helen": 3643,
        "additional": 3644,
        "olympics": 3645,
        "potatoes": 3646,
        "technology": 3647,
        "extension": 3648,
        "above": 3649,
        "nasty": 3650,
        "22": 3651,
        "theat": 3652,
        "ker": 3653,
        "ory": 3654,
        "liu": 3655,
        "tag": 3656,
        "yep": 3657,
        "regre": 3658,
        "termin": 3659,
        "series": 3660,
        "earn": 3661,
        "towel": 3662,
        "dating": 3663,
        "interviewer": 3664,
        "nia": 3665,
        "reserved": 3666,
        "reasons": 3667,
        "cali": 3668,
        "honor": 3669,
        "apples": 3670,
        "flav": 3671,
        "pills": 3672,
        "cats": 3673,
        "patient": 3674,
        "supply": 3675,
        "cancell": 3676,
        "messages": 3677,
        "bowl": 3678,
        "storm": 3679,
        "labor": 3680,
        "divorce": 3681,
        "branch": 3682,
        "areas": 3683,
        "tone": 3684,
        "mir": 3685,
        "indy": 3686,
        "sets": 3687,
        "bite": 3688,
        "chest": 3689,
        "ideal": 3690,
        "burn": 3691,
        "drag": 3692,
        "loss": 3693,
        "washed": 3694,
        "formed": 3695,
        "hunt": 3696,
        "anna": 3697,
        "dealing": 3698,
        "trading": 3699,
        "whenever": 3700,
        "supervis": 3701,
        "sightseeing": 3702,
        "zoo": 3703,
        "pepper": 3704,
        "neckl": 3705,
        "options": 3706,
        "suddenly": 3707,
        "alcohol": 3708,
        "adminis": 3709,
        "toilet": 3710,
        "incredible": 3711,
        "average": 3712,
        "bs": 3713,
        "34": 3714,
        "rep": 3715,
        "chic": 3716,
        "lif": 3717,
        "kno": 3718,
        "anno": 3719,
        "feed": 3720,
        "plat": 3721,
        "spell": 3722,
        "plays": 3723,
        "pale": 3724,
        "strate": 3725,
        "singer": 3726,
        "addic": 3727,
        "nail": 3728,
        "tune": 3729,
        "eleven": 3730,
        "presentation": 3731,
        "bert": 3732,
        "mistakes": 3733,
        "gentle": 3734,
        "failed": 3735,
        "washington": 3736,
        "proud": 3737,
        "tomato": 3738,
        "economics": 3739,
        "effects": 3740,
        "original": 3741,
        "indiv": 3742,
        "senior": 3743,
        "stamps": 3744,
        "measure": 3745,
        "kore": 3746,
        "brush": 3747,
        "august": 3748,
        "conversation": 3749,
        "quantity": 3750,
        "califor": 3751,
        "cindy": 3752,
        "individ": 3753,
        "ww": 3754,
        "erk": 3755,
        "lla": 3756,
        "ado": 3757,
        "sole": 3758,
        "las": 3759,
        "wire": 3760,
        "uri": 3761,
        "sum": 3762,
        "ama": 3763,
        "dust": 3764,
        "worker": 3765,
        "brain": 3766,
        "soci": 3767,
        "whoa": 3768,
        "badly": 3769,
        "psy": 3770,
        "scholar": 3771,
        "topic": 3772,
        "bunch": 3773,
        "holding": 3774,
        "arian": 3775,
        "symp": 3776,
        "rude": 3777,
        "sleeping": 3778,
        "vio": 3779,
        "walls": 3780,
        "graduation": 3781,
        "techn": 3782,
        "regularly": 3783,
        "investment": 3784,
        "connect": 3785,
        "normally": 3786,
        "memory": 3787,
        "competition": 3788,
        "cooperation": 3789,
        "proposal": 3790,
        "physical": 3791,
        "hambur": 3792,
        "extremely": 3793,
        "franc": 3794,
        "op": 3795,
        "meth": 3796,
        "bean": 3797,
        "tch": 3798,
        "dece": 3799,
        "degre": 3800,
        "rage": 3801,
        "shad": 3802,
        "court": 3803,
        "chemis": 3804,
        "distr": 3805,
        "paign": 3806,
        "shame": 3807,
        "enjoying": 3808,
        "pump": 3809,
        "altogether": 3810,
        "porter": 3811,
        "proced": 3812,
        "personality": 3813,
        "fairly": 3814,
        "following": 3815,
        "scheduled": 3816,
        "warming": 3817,
        "statement": 3818,
        "properly": 3819,
        "experienced": 3820,
        "skirt": 3821,
        "degrees": 3822,
        "campaign": 3823,
        "35": 3824,
        "88": 3825,
        "tin": 3826,
        "anal": 3827,
        "reco": 3828,
        "adjust": 3829,
        "pets": 3830,
        "cough": 3831,
        "grown": 3832,
        "grab": 3833,
        "debit": 3834,
        "surv": 3835,
        "brings": 3836,
        "parent": 3837,
        "sending": 3838,
        "crack": 3839,
        "teachers": 3840,
        "favour": 3841,
        "sunny": 3842,
        "consideration": 3843,
        "typing": 3844,
        "plants": 3845,
        "leader": 3846,
        "description": 3847,
        "brief": 3848,
        "selection": 3849,
        "shipping": 3850,
        "piano": 3851,
        "souvenirs": 3852,
        "tornado": 3853,
        "cafeteria": 3854,
        "hobbies": 3855,
        "spoken": 3856,
        "necklace": 3857,
        "california": 3858,
        "thre": 3859,
        "vic": 3860,
        "itut": 3861,
        "cot": 3862,
        "los": 3863,
        "sally": 3864,
        "worst": 3865,
        "thern": 3866,
        "eper": 3867,
        "inqu": 3868,
        "ager": 3869,
        "height": 3870,
        "acts": 3871,
        "pred": 3872,
        "800": 3873,
        "forgive": 3874,
        "shoo": 3875,
        "slight": 3876,
        "studies": 3877,
        "showed": 3878,
        "punch": 3879,
        "warning": 3880,
        "sheet": 3881,
        "considering": 3882,
        "lazy": 3883,
        "chris": 3884,
        "entire": 3885,
        "corporate": 3886,
        "risk": 3887,
        "rupt": 3888,
        "scale": 3889,
        "romantic": 3890,
        "vehicle": 3891,
        "bottles": 3892,
        "chips": 3893,
        "28": 3894,
        "onto": 3895,
        "ram": 3896,
        "repe": 3897,
        "atta": 3898,
        "lock": 3899,
        "spect": 3900,
        "rences": 3901,
        "friendship": 3902,
        "dates": 3903,
        "fifth": 3904,
        "cooked": 3905,
        "forgotten": 3906,
        "particip": 3907,
        "lence": 3908,
        "confident": 3909,
        "micro": 3910,
        "vince": 3911,
        "unusual": 3912,
        "families": 3913,
        "route": 3914,
        "officer": 3915,
        "switch": 3916,
        "fancy": 3917,
        "sharp": 3918,
        "packed": 3919,
        "deserve": 3920,
        "drugs": 3921,
        "articles": 3922,
        "avenue": 3923,
        "vitam": 3924,
        "purpose": 3925,
        "perfume": 3926,
        "split": 3927,
        "sis": 3928,
        "andy": 3929,
        "mal": 3930,
        "sue": 3931,
        "likely": 3932,
        "memo": 3933,
        "pink": 3934,
        "cere": 3935,
        "blame": 3936,
        "skill": 3937,
        "addition": 3938,
        "sich": 3939,
        "offering": 3940,
        "affect": 3941,
        "fourth": 3942,
        "empty": 3943,
        "airmail": 3944,
        "joking": 3945,
        "teaching": 3946,
        "mainly": 3947,
        "raining": 3948,
        "bedrooms": 3949,
        "bio": 3950,
        "practical": 3951,
        "effort": 3952,
        "occup": 3953,
        "sandals": 3954,
        "bicy": 3955,
        "limited": 3956,
        "pcc": 3957,
        "customs": 3958,
        "challenging": 3959,
        "disappointed": 3960,
        "method": 3961,
        "sichuan": 3962,
        "vy": 3963,
        "sore": 3964,
        "anne": 3965,
        "shan": 3966,
        "thinks": 3967,
        "gap": 3968,
        "gotta": 3969,
        "lish": 3970,
        "race": 3971,
        "smok": 3972,
        "cket": 3973,
        "loose": 3974,
        "conside": 3975,
        "seconds": 3976,
        "cleaned": 3977,
        "hundreds": 3978,
        "markets": 3979,
        "opera": 3980,
        "honestly": 3981,
        "enterpr": 3982,
        "mentioned": 3983,
        "sweat": 3984,
        "property": 3985,
        "junk": 3986,
        "protect": 3987,
        "hobby": 3988,
        "universit": 3989,
        "psycho": 3990,
        "survive": 3991,
        "considered": 3992,
        "universities": 3993,
        "ib": 3994,
        "eth": 3995,
        "ald": 3996,
        "ably": 3997,
        "force": 3998,
        "union": 3999,
        "quo": 4000,
        "bush": 4001,
        "harm": 4002,
        "concl": 4003,
        "golf": 4004,
        "minor": 4005,
        "names": 4006,
        "addy": 4007,
        "apartments": 4008,
        "rates": 4009,
        "completed": 4010,
        "fitness": 4011,
        "insist": 4012,
        "transferred": 4013,
        "pants": 4014,
        "afric": 4015,
        "flies": 4016,
        "banking": 4017,
        "housing": 4018,
        "weakness": 4019,
        "cocktail": 4020,
        "bachel": 4021,
        "sarah": 4022,
        "jacket": 4023,
        "maximum": 4024,
        "awesome": 4025,
        "ale": 4026,
        "eral": 4027,
        "iron": 4028,
        "fry": 4029,
        "nap": 4030,
        "vard": 4031,
        "hadn": 4032,
        "cancer": 4033,
        "istic": 4034,
        "waitress": 4035,
        "disco": 4036,
        "display": 4037,
        "salt": 4038,
        "breaks": 4039,
        "invo": 4040,
        "funds": 4041,
        "fitting": 4042,
        "vacu": 4043,
        "solution": 4044,
        "belt": 4045,
        "weigh": 4046,
        "nature": 4047,
        "atives": 4048,
        "capital": 4049,
        "personnel": 4050,
        "roommate": 4051,
        "location": 4052,
        "consult": 4053,
        "economic": 4054,
        "skiing": 4055,
        "horror": 4056,
        "critic": 4057,
        "title": 4058,
        "reduction": 4059,
        "candidate": 4060,
        "repeat": 4061,
        "attach": 4062,
        "harvard": 4063,
        "bey": 4064,
        "dare": 4065,
        "dete": 4066,
        "rights": 4067,
        "prob": 4068,
        "spee": 4069,
        "akes": 4070,
        "runs": 4071,
        "goals": 4072,
        "oppo": 4073,
        "hotels": 4074,
        "bird": 4075,
        "reservations": 4076,
        "acceptable": 4077,
        "particularly": 4078,
        "millions": 4079,
        "silver": 4080,
        "drunk": 4081,
        "damaged": 4082,
        "scenery": 4083,
        "jogging": 4084,
        "depressed": 4085,
        "princi": 4086,
        "clerk": 4087,
        "daddy": 4088,
        "bachelor": 4089,
        "ouse": 4090,
        "shif": 4091,
        "tong": 4092,
        "cil": 4093,
        "item": 4094,
        "spr": 4095,
        "hiking": 4096,
        "civ": 4097,
        "dick": 4098,
        "ums": 4099,
        "pays": 4100,
        "reput": 4101,
        "handsome": 4102,
        "oven": 4103,
        "jason": 4104,
        "chances": 4105,
        "250": 4106,
        "grades": 4107,
        "voted": 4108,
        "lawy": 4109,
        "mangoes": 4110,
        "arrang": 4111,
        "discussion": 4112,
        "itors": 4113,
        "confidence": 4114,
        "advertisements": 4115,
        "advantages": 4116,
        "cockro": 4117,
        "travelling": 4118,
        "compens": 4119,
        "relatives": 4120,
        "global": 4121,
        "grocer": 4122,
        "appetizer": 4123,
        "resources": 4124,
        "expert": 4125,
        "barbie": 4126,
        "strawber": 4127,
        "technical": 4128,
        "francis": 4129,
        "december": 4130,
        "ceremony": 4131,
        "29": 4132,
        "inse": 4133,
        "ases": 4134,
        "fab": 4135,
        "dir": 4136,
        "bour": 4137,
        "tex": 4138,
        "rote": 4139,
        "ceed": 4140,
        "pls": 4141,
        "bul": 4142,
        "rap": 4143,
        "heel": 4144,
        "hero": 4145,
        "belong": 4146,
        "brick": 4147,
        "shoe": 4148,
        "intend": 4149,
        "paperwork": 4150,
        "island": 4151,
        "remit": 4152,
        "laws": 4153,
        "applic": 4154,
        "benefit": 4155,
        "neighbors": 4156,
        "sample": 4157,
        "palace": 4158,
        "channels": 4159,
        "gorge": 4160,
        "habits": 4161,
        "membership": 4162,
        "battery": 4163,
        "boston": 4164,
        "progress": 4165,
        "umbre": 4166,
        "wilson": 4167,
        "chicago": 4168,
        "wrote": 4169,
        "rit": 4170,
        "seed": 4171,
        "none": 4172,
        "meant": 4173,
        "shor": 4174,
        "exe": 4175,
        "const": 4176,
        "henry": 4177,
        "hired": 4178,
        "bored": 4179,
        "chef": 4180,
        "dra": 4181,
        "forest": 4182,
        "thick": 4183,
        "ories": 4184,
        "stage": 4185,
        "romance": 4186,
        "caused": 4187,
        "itself": 4188,
        "stere": 4189,
        "steal": 4190,
        "colu": 4191,
        "below": 4192,
        "signs": 4193,
        "collection": 4194,
        "visited": 4195,
        "listed": 4196,
        "doors": 4197,
        "provides": 4198,
        "goodness": 4199,
        "investig": 4200,
        "teeth": 4201,
        "cigarette": 4202,
        "julia": 4203,
        "entertainment": 4204,
        "catalogu": 4205,
        "vegetarian": 4206,
        "sec": 4207,
        "sex": 4208,
        "haha": 4209,
        "dome": 4210,
        "cro": 4211,
        "sne": 4212,
        "thri": 4213,
        "rely": 4214,
        "stir": 4215,
        "haust": 4216,
        "shout": 4217,
        "thus": 4218,
        "prove": 4219,
        "cate": 4220,
        "liqu": 4221,
        "grass": 4222,
        "mmmm": 4223,
        "contain": 4224,
        "breast": 4225,
        "ium": 4226,
        "trainer": 4227,
        "fired": 4228,
        "award": 4229,
        "departure": 4230,
        "household": 4231,
        "prize": 4232,
        "rains": 4233,
        "relations": 4234,
        "conditioning": 4235,
        "expand": 4236,
        "tification": 4237,
        "garage": 4238,
        "grandmother": 4239,
        "designed": 4240,
        "ifications": 4241,
        "burger": 4242,
        "community": 4243,
        "engaged": 4244,
        "fond": 4245,
        "routine": 4246,
        "paintings": 4247,
        "appliances": 4248,
        "nurse": 4249,
        "offered": 4250,
        "gambling": 4251,
        "manufacture": 4252,
        "flexible": 4253,
        "regret": 4254,
        "scholarship": 4255,
        "exhaust": 4256,
        "ns": 4257,
        "56": 4258,
        "ana": 4259,
        "kar": 4260,
        "ening": 4261,
        "keen": 4262,
        "zone": 4263,
        "ung": 4264,
        "affe": 4265,
        "owners": 4266,
        "chop": 4267,
        "rick": 4268,
        "bage": 4269,
        "finance": 4270,
        "histor": 4271,
        "yang": 4272,
        "trim": 4273,
        "handed": 4274,
        "signed": 4275,
        "picked": 4276,
        "athlet": 4277,
        "exception": 4278,
        "operation": 4279,
        "hopefully": 4280,
        "result": 4281,
        "falls": 4282,
        "altern": 4283,
        "fruits": 4284,
        "correctly": 4285,
        "satisfac": 4286,
        "employment": 4287,
        "communication": 4288,
        "afterwards": 4289,
        "spots": 4290,
        "society": 4291,
        "suffer": 4292,
        "possibly": 4293,
        "encourage": 4294,
        "separate": 4295,
        "lipstick": 4296,
        "motorcycle": 4297,
        "survey": 4298,
        "individual": 4299,
        "recogn": 4300,
        "lawyer": 4301,
        "27": 4302,
        "mc": 4303,
        "86": 4304,
        "iss": 4305,
        "roof": 4306,
        "neare": 4307,
        "abc": 4308,
        "shri": 4309,
        "def": 4310,
        "arts": 4311,
        "itive": 4312,
        "compar": 4313,
        "mars": 4314,
        "dull": 4315,
        "ians": 4316,
        "stands": 4317,
        "partner": 4318,
        "superi": 4319,
        "became": 4320,
        "petite": 4321,
        "returns": 4322,
        "rocks": 4323,
        "regulations": 4324,
        "newspapers": 4325,
        "reliable": 4326,
        "employer": 4327,
        "frustr": 4328,
        "valent": 4329,
        "cultural": 4330,
        "storms": 4331,
        "climbing": 4332,
        "xxxx": 4333,
        "applied": 4334,
        "projects": 4335,
        "data": 4336,
        "village": 4337,
        "compliment": 4338,
        "informed": 4339,
        "shadow": 4340,
        "opposite": 4341,
        "gorgeous": 4342,
        "qualifications": 4343,
        "satisfaction": 4344,
        "fro": 4345,
        "rome": 4346,
        "iff": 4347,
        "ulation": 4348,
        "ires": 4349,
        "stain": 4350,
        "yard": 4351,
        "event": 4352,
        "greatest": 4353,
        "400": 4354,
        "click": 4355,
        "arms": 4356,
        "oak": 4357,
        "moist": 4358,
        "clothing": 4359,
        "interests": 4360,
        "smile": 4361,
        "corn": 4362,
        "bang": 4363,
        "setting": 4364,
        "unbeli": 4365,
        "walked": 4366,
        "cris": 4367,
        "beds": 4368,
        "evenings": 4369,
        "essen": 4370,
        "pages": 4371,
        "presents": 4372,
        "explo": 4373,
        "gross": 4374,
        "logical": 4375,
        "promoted": 4376,
        "fashionable": 4377,
        "nonsmoking": 4378,
        "killed": 4379,
        "effective": 4380,
        "skirts": 4381,
        "zina": 4382,
        "journal": 4383,
        "features": 4384,
        "sunshine": 4385,
        "fortune": 4386,
        "predic": 4387,
        "bicycle": 4388,
        "invoice": 4389,
        "reputation": 4390,
        "visitors": 4391,
        "cockroaches": 4392,
        "colum": 4393,
        "domestic": 4394,
        "shrimp": 4395,
        "unbeliev": 4396,
        "77": 4397,
        "cow": 4398,
        "bel": 4399,
        "ike": 4400,
        "icing": 4401,
        "ids": 4402,
        "amy": 4403,
        "nood": 4404,
        "pam": 4405,
        "tage": 4406,
        "ease": 4407,
        "mur": 4408,
        "mart": 4409,
        "kate": 4410,
        "ille": 4411,
        "bars": 4412,
        "bride": 4413,
        "reci": 4414,
        "slot": 4415,
        "closer": 4416,
        "mile": 4417,
        "lux": 4418,
        "shamp": 4419,
        "eaten": 4420,
        "lished": 4421,
        "lisa": 4422,
        "eleg": 4423,
        "premi": 4424,
        "foreigners": 4425,
        "mode": 4426,
        "affair": 4427,
        "growing": 4428,
        "policies": 4429,
        "organic": 4430,
        "influ": 4431,
        "evidence": 4432,
        "upstairs": 4433,
        "mixed": 4434,
        "embarr": 4435,
        "subjects": 4436,
        "lobby": 4437,
        "thai": 4438,
        "volunteer": 4439,
        "supervisor": 4440,
        "probation": 4441,
        "umbrella": 4442,
        "nearest": 4443,
        "shampoo": 4444,
        "py": 4445,
        "65": 4446,
        "gos": 4447,
        "pir": 4448,
        "iam": 4449,
        "tape": 4450,
        "fright": 4451,
        "ups": 4452,
        "spac": 4453,
        "coun": 4454,
        "lect": 4455,
        "liers": 4456,
        "intell": 4457,
        "alous": 4458,
        "whose": 4459,
        "mechan": 4460,
        "sons": 4461,
        "frag": 4462,
        "lton": 4463,
        "highest": 4464,
        "happening": 4465,
        "juni": 4466,
        "death": 4467,
        "crime": 4468,
        "election": 4469,
        "attack": 4470,
        "recommendation": 4471,
        "azz": 4472,
        "rings": 4473,
        "tradition": 4474,
        "thousands": 4475,
        "placed": 4476,
        "flash": 4477,
        "intention": 4478,
        "damn": 4479,
        "growth": 4480,
        "sticks": 4481,
        "lessons": 4482,
        "deadline": 4483,
        "pitch": 4484,
        "kyo": 4485,
        "lamb": 4486,
        "valuable": 4487,
        "administration": 4488,
        "beyond": 4489,
        "tongue": 4490,
        "pencil": 4491,
        "unbelievable": 4492,
        "junior": 4493,
        "cin": 4494,
        "ena": 4495,
        "inch": 4496,
        "coin": 4497,
        "rac": 4498,
        "link": 4499,
        "yup": 4500,
        "shoulder": 4501,
        "pig": 4502,
        "compare": 4503,
        "whom": 4504,
        "alty": 4505,
        "lemon": 4506,
        "mild": 4507,
        "absent": 4508,
        "contest": 4509,
        "reward": 4510,
        "aunt": 4511,
        "qualities": 4512,
        "foundation": 4513,
        "feelings": 4514,
        "causing": 4515,
        "began": 4516,
        "charming": 4517,
        "confused": 4518,
        "exercising": 4519,
        "marks": 4520,
        "starving": 4521,
        "199": 4522,
        "cuis": 4523,
        "utilities": 4524,
        "parcel": 4525,
        "attract": 4526,
        "iency": 4527,
        "acade": 4528,
        "zero": 4529,
        "scary": 4530,
        "required": 4531,
        "pipe": 4532,
        "advanced": 4533,
        "superior": 4534,
        "appetite": 4535,
        "noodles": 4536,
        "william": 4537,
        "wu": 4538,
        "tz": 4539,
        "jer": 4540,
        "wing": 4541,
        "whis": 4542,
        "ripe": 4543,
        "oce": 4544,
        "trou": 4545,
        "usd": 4546,
        "hop": 4547,
        "hole": 4548,
        "enda": 4549,
        "soap": 4550,
        "poten": 4551,
        "confir": 4552,
        "umin": 4553,
        "dave": 4554,
        "heave": 4555,
        "peak": 4556,
        "duck": 4557,
        "umm": 4558,
        "laid": 4559,
        "guang": 4560,
        "advis": 4561,
        "function": 4562,
        "dated": 4563,
        "clever": 4564,
        "realtor": 4565,
        "speaks": 4566,
        "remove": 4567,
        "banks": 4568,
        "wealth": 4569,
        "inju": 4570,
        "angeles": 4571,
        "anybody": 4572,
        "karen": 4573,
        "roads": 4574,
        "haircut": 4575,
        "twin": 4576,
        "facial": 4577,
        "awfully": 4578,
        "leading": 4579,
        "animal": 4580,
        "candy": 4581,
        "groups": 4582,
        "select": 4583,
        "forbid": 4584,
        "reports": 4585,
        "british": 4586,
        "difficulties": 4587,
        "laughing": 4588,
        "obviously": 4589,
        "continued": 4590,
        "shooting": 4591,
        "pocket": 4592,
        "requires": 4593,
        "bing": 4594,
        "stan": 4595,
        "alt": 4596,
        "neg": 4597,
        "weir": 4598,
        "iring": 4599,
        "upon": 4600,
        "pil": 4601,
        "tack": 4602,
        "mort": 4603,
        "nie": 4604,
        "wars": 4605,
        "forever": 4606,
        "printer": 4607,
        "named": 4608,
        "beans": 4609,
        "sooner": 4610,
        "airline": 4611,
        "decent": 4612,
        "heading": 4613,
        "costu": 4614,
        "admi": 4615,
        "coupon": 4616,
        "parker": 4617,
        "voting": 4618,
        "massage": 4619,
        "clubs": 4620,
        "approach": 4621,
        "killing": 4622,
        "alarm": 4623,
        "macy": 4624,
        "smells": 4625,
        "official": 4626,
        "kilometers": 4627,
        "555": 4628,
        "outstanding": 4629,
        "soccer": 4630,
        "electricity": 4631,
        "breathe": 4632,
        "independent": 4633,
        "russi": 4634,
        "reply": 4635,
        "chemistry": 4636,
        "vitamins": 4637,
        "establish": 4638,
        "speech": 4639,
        "withdra": 4640,
        "competitive": 4641,
        "adena": 4642,
        "agenda": 4643,
        "withdrawal": 4644,
        "kn": 4645,
        "ites": 4646,
        "rand": 4647,
        "cher": 4648,
        "eding": 4649,
        "ened": 4650,
        "eli": 4651,
        "role": 4652,
        "male": 4653,
        "perm": 4654,
        "itate": 4655,
        "fred": 4656,
        "grant": 4657,
        "wave": 4658,
        "phy": 4659,
        "path": 4660,
        "shake": 4661,
        "tics": 4662,
        "ashed": 4663,
        "broch": 4664,
        "toys": 4665,
        "iao": 4666,
        "rug": 4667,
        "passion": 4668,
        "planet": 4669,
        "considerate": 4670,
        "arriving": 4671,
        "zzy": 4672,
        "thirteen": 4673,
        "tables": 4674,
        "fields": 4675,
        "currently": 4676,
        "janet": 4677,
        "educational": 4678,
        "slim": 4679,
        "ridic": 4680,
        "natur": 4681,
        "models": 4682,
        "braz": 4683,
        "downstairs": 4684,
        "alex": 4685,
        "cabine": 4686,
        "forecast": 4687,
        "european": 4688,
        "lincol": 4689,
        "exercises": 4690,
        "judge": 4691,
        "cheques": 4692,
        "century": 4693,
        "preparing": 4694,
        "image": 4695,
        "accommod": 4696,
        "folk": 4697,
        "annoying": 4698,
        "donald": 4699,
        "elegant": 4700,
        "jealous": 4701,
        "potential": 4702,
        "alumin": 4703,
        "naturally": 4704,
        "lincoln": 4705,
        "rd": 4706,
        "39": 4707,
        "han": 4708,
        "hes": 4709,
        "rear": 4710,
        "alle": 4711,
        "mut": 4712,
        "lone": 4713,
        "pun": 4714,
        "nation": 4715,
        "lored": 4716,
        "igning": 4717,
        "mory": 4718,
        "sphere": 4719,
        "ishing": 4720,
        "mbing": 4721,
        "woke": 4722,
        "cles": 4723,
        "cling": 4724,
        "tells": 4725,
        "nick": 4726,
        "lasts": 4727,
        "waist": 4728,
        "tony": 4729,
        "refer": 4730,
        "highway": 4731,
        "chops": 4732,
        "arily": 4733,
        "thoughtful": 4734,
        "matt": 4735,
        "worrying": 4736,
        "ences": 4737,
        "rating": 4738,
        "verted": 4739,
        "managed": 4740,
        "tories": 4741,
        "birds": 4742,
        "prior": 4743,
        "operate": 4744,
        "overweight": 4745,
        "graphy": 4746,
        "writer": 4747,
        "satisfactory": 4748,
        "engineer": 4749,
        "robber": 4750,
        "length": 4751,
        "prevent": 4752,
        "drug": 4753,
        "colour": 4754,
        "negotiate": 4755,
        "possibility": 4756,
        "returning": 4757,
        "cartons": 4758,
        "reached": 4759,
        "sizes": 4760,
        "understood": 4761,
        "frequently": 4762,
        "mexico": 4763,
        "dentist": 4764,
        "electronic": 4765,
        "tablets": 4766,
        "theatre": 4767,
        "robert": 4768,
        "africa": 4769,
        "dirty": 4770,
        "execut": 4771,
        "stereo": 4772,
        "emory": 4773,
        "dv": 4774,
        "32": 4775,
        "wen": 4776,
        "beha": 4777,
        "cif": 4778,
        "jess": 4779,
        "forts": 4780,
        "lack": 4781,
        "kers": 4782,
        "stove": 4783,
        "march": 4784,
        "mornings": 4785,
        "bles": 4786,
        "waited": 4787,
        "fiction": 4788,
        "classic": 4789,
        "trips": 4790,
        "rash": 4791,
        "indian": 4792,
        "wheel": 4793,
        "catching": 4794,
        "purse": 4795,
        "kins": 4796,
        "drove": 4797,
        "grandma": 4798,
        "pattern": 4799,
        "actions": 4800,
        "rolls": 4801,
        "atically": 4802,
        "dutch": 4803,
        "connected": 4804,
        "planned": 4805,
        "qualify": 4806,
        "nuts": 4807,
        "tender": 4808,
        "divorced": 4809,
        "finger": 4810,
        "instructions": 4811,
        "tools": 4812,
        "yoga": 4813,
        "seldom": 4814,
        "multi": 4815,
        "railway": 4816,
        "wireless": 4817,
        "southern": 4818,
        "smoker": 4819,
        "vacuum": 4820,
        "detective": 4821,
        "succeed": 4822,
        "exhausted": 4823,
        "moisturi": 4824,
        "gossi": 4825,
        "ridiculous": 4826,
        "aluminum": 4827,
        "atmo": 4828,
        "behavi": 4829,
        "efforts": 4830,
        "atmosphere": 4831,
        "fy": 4832,
        "38": 4833,
        "cit": 4834,
        "toes": 4835,
        "rier": 4836,
        "iry": 4837,
        "cope": 4838,
        "bend": 4839,
        "bound": 4840,
        "grew": 4841,
        "guard": 4842,
        "akers": 4843,
        "mustn": 4844,
        "blind": 4845,
        "hearing": 4846,
        "farm": 4847,
        "flights": 4848,
        "izing": 4849,
        "streets": 4850,
        "mainten": 4851,
        "recommended": 4852,
        "beside": 4853,
        "santa": 4854,
        "joining": 4855,
        "ified": 4856,
        "horse": 4857,
        "marvel": 4858,
        "promote": 4859,
        "truck": 4860,
        "dedu": 4861,
        "kevin": 4862,
        "llowed": 4863,
        "towards": 4864,
        "earthqu": 4865,
        "confirmation": 4866,
        "booth": 4867,
        "venture": 4868,
        "pregn": 4869,
        "steamed": 4870,
        "engineering": 4871,
        "religious": 4872,
        "allerg": 4873,
        "inconvenience": 4874,
        "seventy": 4875,
        "apparent": 4876,
        "premium": 4877,
        "hilton": 4878,
        "heaven": 4879,
        "guangzhou": 4880,
        "mortgage": 4881,
        "admire": 4882,
        "lonely": 4883,
        "plumbing": 4884,
        "maintenance": 4885,
        "hr": 4886,
        "thy": 4887,
        "gall": 4888,
        "sac": 4889,
        "sink": 4890,
        "gosh": 4891,
        "needn": 4892,
        "esty": 4893,
        "steve": 4894,
        "bump": 4895,
        "chas": 4896,
        "grate": 4897,
        "600": 4898,
        "betty": 4899,
        "liter": 4900,
        "diving": 4901,
        "create": 4902,
        "gather": 4903,
        "cereal": 4904,
        "reality": 4905,
        "picking": 4906,
        "plates": 4907,
        "tasty": 4908,
        "phones": 4909,
        "complex": 4910,
        "depending": 4911,
        "hometown": 4912,
        "operator": 4913,
        "pairs": 4914,
        "fallen": 4915,
        "vegetable": 4916,
        "developing": 4917,
        "treatment": 4918,
        "uncomfortable": 4919,
        "benefic": 4920,
        "arrangements": 4921,
        "bothering": 4922,
        "brian": 4923,
        "webtrack": 4924,
        "challen": 4925,
        "examination": 4926,
        "experiences": 4927,
        "decorating": 4928,
        "spirit": 4929,
        "classmates": 4930,
        "audience": 4931,
        "political": 4932,
        "websites": 4933,
        "passenger": 4934,
        "initial": 4935,
        "strengths": 4936,
        "assured": 4937,
        "dumpling": 4938,
        "stretch": 4939,
        "institut": 4940,
        "arranged": 4941,
        "compensation": 4942,
        "identification": 4943,
        "tokyo": 4944,
        "confirmed": 4945,
        "weird": 4946,
        "webtracker": 4947,
        "challenge": 4948,
        "itar": 4949,
        "beg": 4950,
        "lder": 4951,
        "pour": 4952,
        "ify": 4953,
        "fet": 4954,
        "info": 4955,
        "tires": 4956,
        "ets": 4957,
        "pron": 4958,
        "coach": 4959,
        "dies": 4960,
        "mini": 4961,
        "condu": 4962,
        "rental": 4963,
        "overnight": 4964,
        "fewer": 4965,
        "fuel": 4966,
        "bringing": 4967,
        "jet": 4968,
        "lord": 4969,
        "asian": 4970,
        "leaking": 4971,
        "tower": 4972,
        "packages": 4973,
        "handling": 4974,
        "envelo": 4975,
        "tempor": 4976,
        "actual": 4977,
        "fashioned": 4978,
        "balcon": 4979,
        "directions": 4980,
        "certificates": 4981,
        "stressful": 4982,
        "pulled": 4983,
        "jumped": 4984,
        "crush": 4985,
        "collecting": 4986,
        "airlines": 4987,
        "organization": 4988,
        "strike": 4989,
        "target": 4990,
        "difficulty": 4991,
        "imagin": 4992,
        "automatic": 4993,
        "passengers": 4994,
        "destroy": 4995,
        "storage": 4996,
        "procedure": 4997,
        "favourite": 4998,
        "cotton": 4999,
        "blouse": 5000,
        "fabulous": 5001,
        "constant": 5002,
        "enthus": 5003,
        "illegal": 5004,
        "established": 5005,
        "forbidden": 5006,
        "enthusi": 5007,
        "98": 5008,
        "gay": 5009,
        "behave": 5010,
        "ura": 5011,
        "ending": 5012,
        "pul": 5013,
        "peel": 5014,
        "zers": 5015,
        "erson": 5016,
        "trous": 5017,
        "letting": 5018,
        "carro": 5019,
        "serving": 5020,
        "inven": 5021,
        "talks": 5022,
        "speakers": 5023,
        "departments": 5024,
        "humor": 5025,
        "via": 5026,
        "outfit": 5027,
        "breaking": 5028,
        "shortly": 5029,
        "sleepy": 5030,
        "boards": 5031,
        "surface": 5032,
        "coins": 5033,
        "honda": 5034,
        "attended": 5035,
        "creative": 5036,
        "refresh": 5037,
        "dropped": 5038,
        "designer": 5039,
        "developed": 5040,
        "postcards": 5041,
        "basement": 5042,
        "allowance": 5043,
        "raised": 5044,
        "scient": 5045,
        "employed": 5046,
        "appropri": 5047,
        "issues": 5048,
        "printed": 5049,
        "relationships": 5050,
        "patience": 5051,
        "chatting": 5052,
        "concentr": 5053,
        "propose": 5054,
        "circ": 5055,
        "branches": 5056,
        "calend": 5057,
        "internal": 5058,
        "breathing": 5059,
        "barbec": 5060,
        "associ": 5061,
        "envy": 5062,
        "thrill": 5063,
        "garbage": 5064,
        "martin": 5065,
        "academic": 5066,
        "waltz": 5067,
        "purchas": 5068,
        "grateful": 5069,
        "trousers": 5070,
        "carrots": 5071,
        "barbecue": 5072,
        "pc": 5073,
        "kin": 5074,
        "bin": 5075,
        "aer": 5076,
        "lli": 5077,
        "idi": 5078,
        "geo": 5079,
        "edge": 5080,
        "acy": 5081,
        "assu": 5082,
        "okes": 5083,
        "pear": 5084,
        "nope": 5085,
        "del": 5086,
        "deb": 5087,
        "saf": 5088,
        "ensure": 5089,
        "afts": 5090,
        "owner": 5091,
        "chose": 5092,
        "marked": 5093,
        "impact": 5094,
        "imm": 5095,
        "minded": 5096,
        "mask": 5097,
        "delight": 5098,
        "gged": 5099,
        "charles": 5100,
        "lowest": 5101,
        "skating": 5102,
        "huang": 5103,
        "tuition": 5104,
        "filing": 5105,
        "profic": 5106,
        "posted": 5107,
        "generation": 5108,
        "merry": 5109,
        "attending": 5110,
        "ninety": 5111,
        "designs": 5112,
        "carrying": 5113,
        "relieve": 5114,
        "tailed": 5115,
        "instance": 5116,
        "elvin": 5117,
        "syd": 5118,
        "distri": 5119,
        "steaks": 5120,
        "frankly": 5121,
        "samples": 5122,
        "energet": 5123,
        "surfing": 5124,
        "traveller": 5125,
        "britain": 5126,
        "destination": 5127,
        "competi": 5128,
        "grill": 5129,
        "representative": 5130,
        "cancelled": 5131,
        "mirror": 5132,
        "dragon": 5133,
        "platform": 5134,
        "addicted": 5135,
        "crackers": 5136,
        "ferences": 5137,
        "methods": 5138,
        "neighbour": 5139,
        "cuisine": 5140,
        "dizzy": 5141,
        "apparently": 5142,
        "sydney": 5143,
        "energetic": 5144,
        "ox": 5145,
        "95": 5146,
        "uk": 5147,
        "een": 5148,
        "shave": 5149,
        "bare": 5150,
        "pad": 5151,
        "fear": 5152,
        "worn": 5153,
        "amen": 5154,
        "dip": 5155,
        "uary": 5156,
        "shown": 5157,
        "booking": 5158,
        "surf": 5159,
        "covers": 5160,
        "filet": 5161,
        "recei": 5162,
        "specialty": 5163,
        "countryside": 5164,
        "seattle": 5165,
        "chosen": 5166,
        "equal": 5167,
        "slept": 5168,
        "drives": 5169,
        "quot": 5170,
        "flood": 5171,
        "faith": 5172,
        "dancer": 5173,
        "arrives": 5174,
        "weights": 5175,
        "conditioner": 5176,
        "buildings": 5177,
        "provided": 5178,
        "camping": 5179,
        "concern": 5180,
        "midnight": 5181,
        "garlic": 5182,
        "winning": 5183,
        "arrangement": 5184,
        "burning": 5185,
        "extent": 5186,
        "abilities": 5187,
        "wooden": 5188,
        "iba": 5189,
        "consumer": 5190,
        "prints": 5191,
        "supper": 5192,
        "emails": 5193,
        "techni": 5194,
        "scene": 5195,
        "structure": 5196,
        "reduced": 5197,
        "puzz": 5198,
        "racket": 5199,
        "delayed": 5200,
        "nancy": 5201,
        "crying": 5202,
        "communicate": 5203,
        "tango": 5204,
        "solid": 5205,
        "subscription": 5206,
        "knock": 5207,
        "strategy": 5208,
        "hamburger": 5209,
        "civil": 5210,
        "strawberry": 5211,
        "heels": 5212,
        "aspir": 5213,
        "efficiency": 5214,
        "ocean": 5215,
        "cycling": 5216,
        "behavior": 5217,
        "marvelous": 5218,
        "circum": 5219,
        "calendar": 5220,
        "detailed": 5221,
        "ron": 5222,
        "wis": 5223,
        "ining": 5224,
        "rele": 5225,
        "anda": 5226,
        "llen": 5227,
        "dol": 5228,
        "aland": 5229,
        "uts": 5230,
        "kne": 5231,
        "extr": 5232,
        "urt": 5233,
        "upper": 5234,
        "mush": 5235,
        "leaf": 5236,
        "hike": 5237,
        "lag": 5238,
        "joke": 5239,
        "chem": 5240,
        "ief": 5241,
        "buck": 5242,
        "mba": 5243,
        "arrow": 5244,
        "meantime": 5245,
        "resist": 5246,
        "diam": 5247,
        "former": 5248,
        "thunder": 5249,
        "tips": 5250,
        "throughout": 5251,
        "musical": 5252,
        "exceed": 5253,
        "tub": 5254,
        "sleeve": 5255,
        "crimin": 5256,
        "subur": 5257,
        "sellers": 5258,
        "saved": 5259,
        "atics": 5260,
        "treated": 5261,
        "trend": 5262,
        "rainy": 5263,
        "respond": 5264,
        "eighty": 5265,
        "unfair": 5266,
        "advise": 5267,
        "workshop": 5268,
        "temper": 5269,
        "brothers": 5270,
        "grandfather": 5271,
        "unique": 5272,
        "restric": 5273,
        "jimmy": 5274,
        "disney": 5275,
        "accidentally": 5276,
        "notebook": 5277,
        "processing": 5278,
        "prescribe": 5279,
        "quarters": 5280,
        "release": 5281,
        "plug": 5282,
        "sara": 5283,
        "scram": 5284,
        "regarding": 5285,
        "honeymoon": 5286,
        "korea": 5287,
        "contracts": 5288,
        "influence": 5289,
        "counse": 5290,
        "factories": 5291,
        "followed": 5292,
        "earthquake": 5293,
        "guitar": 5294,
        "balcony": 5295,
        "brilli": 5296,
        "amenities": 5297,
        "aspirin": 5298,
        "chemical": 5299,
        "brilliant": 5300,
        "ane": 5301,
        "ark": 5302,
        "fas": 5303,
        "zed": 5304,
        "tro": 5305,
        "robe": 5306,
        "aid": 5307,
        "lying": 5308,
        "bone": 5309,
        "lation": 5310,
        "alive": 5311,
        "chill": 5312,
        "buf": 5313,
        "tense": 5314,
        "dread": 5315,
        "choo": 5316,
        "pure": 5317,
        "sitive": 5318,
        "frame": 5319,
        "intosh": 5320,
        "wholes": 5321,
        "tiles": 5322,
        "drivers": 5323,
        "jewel": 5324,
        "curly": 5325,
        "thail": 5326,
        "refill": 5327,
        "expectations": 5328,
        "matters": 5329,
        "favorable": 5330,
        "orient": 5331,
        "passes": 5332,
        "valid": 5333,
        "myster": 5334,
        "floors": 5335,
        "closes": 5336,
        "blackout": 5337,
        "cookies": 5338,
        "struc": 5339,
        "sofa": 5340,
        "accord": 5341,
        "polish": 5342,
        "polite": 5343,
        "recover": 5344,
        "obje": 5345,
        "hanging": 5346,
        "answers": 5347,
        "affordable": 5348,
        "admission": 5349,
        "riding": 5350,
        "fighting": 5351,
        "selected": 5352,
        "sharing": 5353,
        "stances": 5354,
        "thorough": 5355,
        "calcul": 5356,
        "scarf": 5357,
        "sources": 5358,
        "grape": 5359,
        "combination": 5360,
        "assigned": 5361,
        "announce": 5362,
        "nails": 5363,
        "ambul": 5364,
        "manufacturer": 5365,
        "recognize": 5366,
        "suppliers": 5367,
        "intellig": 5368,
        "hesitate": 5369,
        "january": 5370,
        "choosing": 5371,
        "sensitive": 5372,
        "thailand": 5373,
        "xi": 5374,
        "eh": 5375,
        "ino": 5376,
        "youth": 5377,
        "ats": 5378,
        "reve": 5379,
        "phe": 5380,
        "ost": 5381,
        "fle": 5382,
        "stro": 5383,
        "anyhow": 5384,
        "hook": 5385,
        "hip": 5386,
        "insure": 5387,
        "bled": 5388,
        "wound": 5389,
        "illa": 5390,
        "harry": 5391,
        "demon": 5392,
        "plot": 5393,
        "tance": 5394,
        "tang": 5395,
        "turns": 5396,
        "trial": 5397,
        "created": 5398,
        "custo": 5399,
        "cleans": 5400,
        "fiance": 5401,
        "curtain": 5402,
        "flor": 5403,
        "rowed": 5404,
        "disagree": 5405,
        "region": 5406,
        "credits": 5407,
        "handbag": 5408,
        "interviews": 5409,
        "sixth": 5410,
        "positions": 5411,
        "sells": 5412,
        "thirsty": 5413,
        "rub": 5414,
        "istics": 5415,
        "quicker": 5416,
        "mascar": 5417,
        "signature": 5418,
        "joined": 5419,
        "steps": 5420,
        "ctors": 5421,
        "scores": 5422,
        "honors": 5423,
        "brave": 5424,
        "organized": 5425,
        "chilly": 5426,
        "cruise": 5427,
        "kelly": 5428,
        "physics": 5429,
        "organizing": 5430,
        "tina": 5431,
        "idential": 5432,
        "overdraft": 5433,
        "bungee": 5434,
        "initi": 5435,
        "figured": 5436,
        "symptoms": 5437,
        "sisters": 5438,
        "valentine": 5439,
        "essential": 5440,
        "negative": 5441,
        "niece": 5442,
        "altadena": 5443,
        "executive": 5444,
        "gossip": 5445,
        "sheets": 5446,
        "aerob": 5447,
        "safer": 5448,
        "zealand": 5449,
        "diamond": 5450,
        "mascara": 5451,
        "66": 5452,
        "mare": 5453,
        "nove": 5454,
        "logo": 5455,
        "ador": 5456,
        "poin": 5457,
        "hoo": 5458,
        "pine": 5459,
        "hack": 5460,
        "liest": 5461,
        "mathem": 5462,
        "fers": 5463,
        "gown": 5464,
        "sorts": 5465,
        "perman": 5466,
        "wool": 5467,
        "courage": 5468,
        "intern": 5469,
        "metal": 5470,
        "fans": 5471,
        "dislike": 5472,
        "steam": 5473,
        "learnt": 5474,
        "housework": 5475,
        "handic": 5476,
        "edition": 5477,
        "unhappy": 5478,
        "trained": 5479,
        "ancy": 5480,
        "surger": 5481,
        "creating": 5482,
        "chap": 5483,
        "sidewalk": 5484,
        "maria": 5485,
        "shoot": 5486,
        "bookstore": 5487,
        "sixteen": 5488,
        "receipts": 5489,
        "stocks": 5490,
        "discussed": 5491,
        "systems": 5492,
        "capable": 5493,
        "temple": 5494,
        "continent": 5495,
        "motiv": 5496,
        "cheapest": 5497,
        "employers": 5498,
        "collections": 5499,
        "equi": 5500,
        "polling": 5501,
        "largest": 5502,
        "kilos": 5503,
        "refuse": 5504,
        "realized": 5505,
        "cooperate": 5506,
        "manners": 5507,
        "exports": 5508,
        "compared": 5509,
        "lottery": 5510,
        "lobster": 5511,
        "dorm": 5512,
        "committed": 5513,
        "collar": 5514,
        "dynasty": 5515,
        "maker": 5516,
        "towels": 5517,
        "www": 5518,
        "analys": 5519,
        "occupation": 5520,
        "enterprise": 5521,
        "ibm": 5522,
        "historical": 5523,
        "jazz": 5524,
        "coupons": 5525,
        "bleeding": 5526,
        "dvd": 5527,
        "laura": 5528,
        "barely": 5529,
        "macintosh": 5530,
        "ambulance": 5531,
        "analysis": 5532,
        "ek": 5533,
        "hh": 5534,
        "bou": 5535,
        "gor": 5536,
        "mel": 5537,
        "abor": 5538,
        "cance": 5539,
        "infe": 5540,
        "deter": 5541,
        "vase": 5542,
        "roman": 5543,
        "jill": 5544,
        "spill": 5545,
        "urity": 5546,
        "clou": 5547,
        "brad": 5548,
        "weekly": 5549,
        "stole": 5550,
        "therefore": 5551,
        "semin": 5552,
        "grace": 5553,
        "carol": 5554,
        "hawa": 5555,
        "task": 5556,
        "charity": 5557,
        "watches": 5558,
        "lley": 5559,
        "tiger": 5560,
        "viewed": 5561,
        "crash": 5562,
        "sence": 5563,
        "heating": 5564,
        "managers": 5565,
        "idents": 5566,
        "asia": 5567,
        "cleaner": 5568,
        "commut": 5569,
        "backpack": 5570,
        "returned": 5571,
        "cardboard": 5572,
        "specially": 5573,
        "wines": 5574,
        "fourteen": 5575,
        "attendance": 5576,
        "capac": 5577,
        "surprising": 5578,
        "stronger": 5579,
        "taipe": 5580,
        "truly": 5581,
        "appeal": 5582,
        "comedy": 5583,
        "baseball": 5584,
        "matches": 5585,
        "accompl": 5586,
        "approval": 5587,
        "cosme": 5588,
        "salads": 5589,
        "improvement": 5590,
        "immediate": 5591,
        "complaints": 5592,
        "reference": 5593,
        "unex": 5594,
        "antique": 5595,
        "couples": 5596,
        "holly": 5597,
        "deserves": 5598,
        "toothache": 5599,
        "emily": 5600,
        "scratch": 5601,
        "freedom": 5602,
        "monitor": 5603,
        "editor": 5604,
        "religion": 5605,
        "vacant": 5606,
        "novels": 5607,
        "flavors": 5608,
        "district": 5609,
        "threat": 5610,
        "eager": 5611,
        "slightly": 5612,
        "suspect": 5613,
        "shift": 5614,
        "insects": 5615,
        "shouting": 5616,
        "frustrating": 5617,
        "frozen": 5618,
        "miao": 5619,
        "automatically": 5620,
        "lifesty": 5621,
        "dumplings": 5622,
        "anderson": 5623,
        "immig": 5624,
        "counselor": 5625,
        "buffet": 5626,
        "remittance": 5627,
        "borrowed": 5628,
        "surgery": 5629,
        "taipei": 5630,
        "accomplish": 5631,
        "48": 5632,
        "inn": 5633,
        "bay": 5634,
        "anic": 5635,
        "stal": 5636,
        "rial": 5637,
        "tied": 5638,
        "exit": 5639,
        "ration": 5640,
        "conce": 5641,
        "hier": 5642,
        "ults": 5643,
        "igno": 5644,
        "phar": 5645,
        "clin": 5646,
        "excl": 5647,
        "wears": 5648,
        "washer": 5649,
        "sert": 5650,
        "dili": 5651,
        "tries": 5652,
        "110": 5653,
        "differently": 5654,
        "filling": 5655,
        "careless": 5656,
        "lesson": 5657,
        "adult": 5658,
        "sensible": 5659,
        "cheating": 5660,
        "italy": 5661,
        "portion": 5662,
        "deposits": 5663,
        "stones": 5664,
        "traveled": 5665,
        "landed": 5666,
        "medication": 5667,
        "messed": 5668,
        "generous": 5669,
        "cub": 5670,
        "drops": 5671,
        "entific": 5672,
        "cheque": 5673,
        "confusing": 5674,
        "locked": 5675,
        "stressed": 5676,
        "enroll": 5677,
        "greek": 5678,
        "matched": 5679,
        "factors": 5680,
        "duties": 5681,
        "boiled": 5682,
        "approved": 5683,
        "blond": 5684,
        "robbed": 5685,
        "pacific": 5686,
        "commerce": 5687,
        "poison": 5688,
        "argue": 5689,
        "photography": 5690,
        "hardware": 5691,
        "providing": 5692,
        "slack": 5693,
        "automobile": 5694,
        "rebec": 5695,
        "flavor": 5696,
        "hunting": 5697,
        "interrupt": 5698,
        "violence": 5699,
        "quote": 5700,
        "column": 5701,
        "spacious": 5702,
        "injured": 5703,
        "hiring": 5704,
        "brochure": 5705,
        "appropriate": 5706,
        "narrow": 5707,
        "stroke": 5708,
        "permanent": 5709,
        "scientific": 5710,
        "rebecca": 5711,
        "yi": 5712,
        "ji": 5713,
        "ix": 5714,
        "ao": 5715,
        "cv": 5716,
        "jin": 5717,
        "rei": 5718,
        "thand": 5719,
        "nov": 5720,
        "neat": 5721,
        "promp": 5722,
        "outgoing": 5723,
        "uck": 5724,
        "iction": 5725,
        "lotion": 5726,
        "ored": 5727,
        "estate": 5728,
        "albu": 5729,
        "beers": 5730,
        "900": 5731,
        "mont": 5732,
        "manic": 5733,
        "entry": 5734,
        "leak": 5735,
        "paycheck": 5736,
        "patch": 5737,
        "mmers": 5738,
        "phon": 5739,
        "explan": 5740,
        "cheated": 5741,
        "blank": 5742,
        "closing": 5743,
        "overhead": 5744,
        "billion": 5745,
        "listing": 5746,
        "lates": 5747,
        "suites": 5748,
        "margin": 5749,
        "fridge": 5750,
        "blog": 5751,
        "tours": 5752,
        "painful": 5753,
        "magic": 5754,
        "response": 5755,
        "arrival": 5756,
        "kitty": 5757,
        "copier": 5758,
        "decisions": 5759,
        "ripped": 5760,
        "cosmo": 5761,
        "slipped": 5762,
        "relief": 5763,
        "180": 5764,
        "stranger": 5765,
        "woods": 5766,
        "complaint": 5767,
        "buddy": 5768,
        "spoke": 5769,
        "stamp": 5770,
        "fluently": 5771,
        "dreamed": 5772,
        "preparation": 5773,
        "compete": 5774,
        "shuttle": 5775,
        "occasionally": 5776,
        "frequent": 5777,
        "arrested": 5778,
        "installation": 5779,
        "mexican": 5780,
        "threw": 5781,
        "keeper": 5782,
        "microsoft": 5783,
        "catalogue": 5784,
        "athletes": 5785,
        "kiss": 5786,
        "label": 5787,
        "earrings": 5788,
        "rewarding": 5789,
        "alley": 5790,
        "colored": 5791,
        "robbery": 5792,
        "pregnant": 5793,
        "temporary": 5794,
        "jokes": 5795,
        "chief": 5796,
        "ghost": 5797,
        "vanilla": 5798,
        "florid": 5799,
        "earliest": 5800,
        "maturity": 5801,
        "hawaii": 5802,
        "capacity": 5803,
        "reimbur": 5804,
        "florida": 5805,
        "dd": 5806,
        "ug": 5807,
        "xy": 5808,
        "tat": 5809,
        "leo": 5810,
        "ray": 5811,
        "dose": 5812,
        "loso": 5813,
        "tile": 5814,
        "jac": 5815,
        "wipe": 5816,
        "cet": 5817,
        "mbo": 5818,
        "deck": 5819,
        "spon": 5820,
        "spain": 5821,
        "vity": 5822,
        "agers": 5823,
        "mers": 5824,
        "ouses": 5825,
        "unci": 5826,
        "buyer": 5827,
        "ignon": 5828,
        "disk": 5829,
        "herself": 5830,
        "cola": 5831,
        "canton": 5832,
        "lips": 5833,
        "otic": 5834,
        "trash": 5835,
        "freeze": 5836,
        "speaker": 5837,
        "banker": 5838,
        "1000": 5839,
        "walks": 5840,
        "athy": 5841,
        "tives": 5842,
        "passing": 5843,
        "passbook": 5844,
        "salesman": 5845,
        "bandages": 5846,
        "johnny": 5847,
        "acceptance": 5848,
        "revo": 5849,
        "tailor": 5850,
        "lands": 5851,
        "outdoor": 5852,
        "lawn": 5853,
        "airsick": 5854,
        "atory": 5855,
        "imports": 5856,
        "attendant": 5857,
        "flag": 5858,
        "discounts": 5859,
        "signific": 5860,
        "allows": 5861,
        "introduced": 5862,
        "curi": 5863,
        "convin": 5864,
        "distur": 5865,
        "distin": 5866,
        "equally": 5867,
        "killer": 5868,
        "divided": 5869,
        "discovered": 5870,
        "powerful": 5871,
        "tasted": 5872,
        "australian": 5873,
        "julie": 5874,
        "circul": 5875,
        "judy": 5876,
        "tourni": 5877,
        "banquet": 5878,
        "bench": 5879,
        "candidates": 5880,
        "photographs": 5881,
        "combined": 5882,
        "lungs": 5883,
        "wrapped": 5884,
        "salaries": 5885,
        "analy": 5886,
        "federal": 5887,
        "resolution": 5888,
        "stad": 5889,
        "pamph": 5890,
        "affairs": 5891,
        "jerry": 5892,
        "whisk": 5893,
        "inquiry": 5894,
        "suburbs": 5895,
        "fascin": 5896,
        "circumstances": 5897,
        "nightmare": 5898,
        "pointing": 5899,
        "shorthand": 5900,
        "philoso": 5901,
        "symbo": 5902,
        "pronunci": 5903,
        "tourniquet": 5904,
        "stadium": 5905,
        "37": 5906,
        "zu": 5907,
        "sti": 5908,
        "wei": 5909,
        "dal": 5910,
        "asing": 5911,
        "edd": 5912,
        "verse": 5913,
        "tram": 5914,
        "ryan": 5915,
        "compre": 5916,
        "greatly": 5917,
        "woo": 5918,
        "overall": 5919,
        "isting": 5920,
        "dough": 5921,
        "mass": 5922,
        "brace": 5923,
        "pace": 5924,
        "miser": 5925,
        "salty": 5926,
        "stays": 5927,
        "creation": 5928,
        "ashes": 5929,
        "ushed": 5930,
        "deals": 5931,
        "pected": 5932,
        "steward": 5933,
        "percen": 5934,
        "holders": 5935,
        "windy": 5936,
        "serves": 5937,
        "rumor": 5938,
        "lane": 5939,
        "retired": 5940,
        "aled": 5941,
        "jordan": 5942,
        "posters": 5943,
        "programmes": 5944,
        "published": 5945,
        "flea": 5946,
        "grandpa": 5947,
        "ctual": 5948,
        "conserv": 5949,
        "hospitality": 5950,
        "introduction": 5951,
        "scot": 5952,
        "instant": 5953,
        "facilities": 5954,
        "assistance": 5955,
        "professors": 5956,
        "powder": 5957,
        "reminds": 5958,
        "slipper": 5959,
        "robin": 5960,
        "shirley": 5961,
        "argument": 5962,
        "vacancy": 5963,
        "freezing": 5964,
        "folks": 5965,
        "efficiently": 5966,
        "theory": 5967,
        "feedback": 5968,
        "drama": 5969,
        "tiny": 5970,
        "psychology": 5971,
        "museums": 5972,
        "francisco": 5973,
        "secure": 5974,
        "categ": 5975,
        "liquor": 5976,
        "disease": 5977,
        "murder": 5978,
        "luxury": 5979,
        "penalty": 5980,
        "sneakers": 5981,
        "complexion": 5982,
        "concentrate": 5983,
        "instruc": 5984,
        "intelligent": 5985,
        "scrambled": 5986,
        "november": 5987,
        "canceled": 5988,
        "adults": 5989,
        "summers": 5990,
        "cantonese": 5991,
        "unexpected": 5992,
        "42": 5993,
        "leis": 5994,
        "pha": 5995,
        "andre": 5996,
        "kic": 5997,
        "ali": 5998,
        "bust": 5999,
        "ceo": 6000,
        "someday": 6001,
        "jun": 6002,
        "maid": 6003,
        "icate": 6004,
        "quis": 6005,
        "apt": 6006,
        "newly": 6007,
        "ered": 6008,
        "bered": 6009,
        "hide": 6010,
        "couch": 6011,
        "comer": 6012,
        "bure": 6013,
        "groom": 6014,
        "peking": 6015,
        "spread": 6016,
        "guil": 6017,
        "gum": 6018,
        "resign": 6019,
        "dram": 6020,
        "perform": 6021,
        "disast": 6022,
        "intment": 6023,
        "angers": 6024,
        "assed": 6025,
        "lester": 6026,
        "germany": 6027,
        "fastest": 6028,
        "pects": 6029,
        "balls": 6030,
        "mails": 6031,
        "founded": 6032,
        "winds": 6033,
        "ficient": 6034,
        "saves": 6035,
        "etv": 6036,
        "facing": 6037,
        "privac": 6038,
        "painted": 6039,
        "dresses": 6040,
        "cooker": 6041,
        "warmer": 6042,
        "comfort": 6043,
        "happier": 6044,
        "vouch": 6045,
        "janice": 6046,
        "michell": 6047,
        "leads": 6048,
        "organize": 6049,
        "brands": 6050,
        "roller": 6051,
        "connections": 6052,
        "elected": 6053,
        "nba": 6054,
        "quarrel": 6055,
        "dreams": 6056,
        "viol": 6057,
        "activity": 6058,
        "coats": 6059,
        "childhood": 6060,
        "estimate": 6061,
        "crowd": 6062,
        "exhibits": 6063,
        "guarante": 6064,
        "spoil": 6065,
        "deadlines": 6066,
        "nutr": 6067,
        "golden": 6068,
        "dieting": 6069,
        "ginger": 6070,
        "fingers": 6071,
        "documentary": 6072,
        "benjam": 6073,
        "causes": 6074,
        "spirits": 6075,
        "gamble": 6076,
        "snacks": 6077,
        "suffered": 6078,
        "workshops": 6079,
        "tricks": 6080,
        "korean": 6081,
        "enterprises": 6082,
        "harmful": 6083,
        "alternatives": 6084,
        "ikea": 6085,
        "chopsticks": 6086,
        "pilgri": 6087,
        "crashed": 6088,
        "cabinet": 6089,
        "mattress": 6090,
        "classified": 6091,
        "landlord": 6092,
        "crafts": 6093,
        "proficient": 6094,
        "competitors": 6095,
        "relev": 6096,
        "intense": 6097,
        "jewelry": 6098,
        "curtains": 6099,
        "lifestyle": 6100,
        "tattoo": 6101,
        "teenagers": 6102,
        "revocable": 6103,
        "ointment": 6104,
        "sufficient": 6105,
        "privacy": 6106,
        "michelle": 6107,
        "benjamin": 6108,
        "relevant": 6109,
        "67": 6110,
        "cm": 6111,
        "fou": 6112,
        "ony": 6113,
        "fto": 6114,
        "yen": 6115,
        "allen": 6116,
        "rod": 6117,
        "tid": 6118,
        "lover": 6119,
        "peas": 6120,
        "hens": 6121,
        "zhen": 6122,
        "bree": 6123,
        "nah": 6124,
        "assy": 6125,
        "sheep": 6126,
        "buyers": 6127,
        "blan": 6128,
        "disput": 6129,
        "ketch": 6130,
        "joint": 6131,
        "learner": 6132,
        "ambit": 6133,
        "shared": 6134,
        "eze": 6135,
        "gments": 6136,
        "bulle": 6137,
        "accur": 6138,
        "homeless": 6139,
        "toward": 6140,
        "carried": 6141,
        "sung": 6142,
        "espres": 6143,
        "2000": 6144,
        "examine": 6145,
        "apping": 6146,
        "colorful": 6147,
        "latin": 6148,
        "appointments": 6149,
        "magn": 6150,
        "contrary": 6151,
        "dances": 6152,
        "cupboard": 6153,
        "cups": 6154,
        "relaxation": 6155,
        "sandy": 6156,
        "unlead": 6157,
        "raising": 6158,
        "delicate": 6159,
        "environmental": 6160,
        "sils": 6161,
        "reminding": 6162,
        "entered": 6163,
        "awake": 6164,
        "awards": 6165,
        "involves": 6166,
        "settlement": 6167,
        "tified": 6168,
        "dozens": 6169,
        "proposed": 6170,
        "bonuses": 6171,
        "beautifu": 6172,
        "boots": 6173,
        "agging": 6174,
        "negotiation": 6175,
        "hills": 6176,
        "bargaining": 6177,
        "sandwiches": 6178,
        "lecture": 6179,
        "hydr": 6180,
        "universe": 6181,
        "inspir": 6182,
        "appearance": 6183,
        "pancakes": 6184,
        "browsing": 6185,
        "peaceful": 6186,
        "contribute": 6187,
        "permitted": 6188,
        "electronics": 6189,
        "announced": 6190,
        "weaknesses": 6191,
        "grocery": 6192,
        "groceries": 6193,
        "expanding": 6194,
        "kung": 6195,
        "eventually": 6196,
        "williams": 6197,
        "brazil": 6198,
        "signing": 6199,
        "twen": 6200,
        "distribut": 6201,
        "swo": 6202,
        "wardrobe": 6203,
        "cosmetics": 6204,
        "titanic": 6205,
        "chocolates": 6206,
        "todd": 6207,
        "miserable": 6208,
        "percentage": 6209,
        "lefto": 6210,
        "comprehens": 6211,
        "embassy": 6212,
        "espresso": 6213,
        "unleaded": 6214,
        "beautifully": 6215,
        "swollen": 6216,
        "ka": 6217,
        "85": 6218,
        "lou": 6219,
        "gle": 6220,
        "dot": 6221,
        "eric": 6222,
        "tering": 6223,
        "somehow": 6224,
        "rink": 6225,
        "shu": 6226,
        "fus": 6227,
        "agon": 6228,
        "fold": 6229,
        "theast": 6230,
        "bble": 6231,
        "shel": 6232,
        "pill": 6233,
        "motion": 6234,
        "iest": 6235,
        "compact": 6236,
        "wherever": 6237,
        "cheers": 6238,
        "pars": 6239,
        "seeking": 6240,
        "firstly": 6241,
        "assing": 6242,
        "situ": 6243,
        "dupl": 6244,
        "expen": 6245,
        "rang": 6246,
        "shakes": 6247,
        "persons": 6248,
        "fles": 6249,
        "seated": 6250,
        "tank": 6251,
        "importance": 6252,
        "headed": 6253,
        "useless": 6254,
        "lists": 6255,
        "ships": 6256,
        "luckily": 6257,
        "stopping": 6258,
        "swear": 6259,
        "biz": 6260,
        "solved": 6261,
        "factor": 6262,
        "listened": 6263,
        "fellow": 6264,
        "forced": 6265,
        "begins": 6266,
        "voc": 6267,
        "precious": 6268,
        "operating": 6269,
        "feature": 6270,
        "testing": 6271,
        "suggested": 6272,
        "lantern": 6273,
        "conflic": 6274,
        "patent": 6275,
        "publicity": 6276,
        "password": 6277,
        "repayment": 6278,
        "nonsense": 6279,
        "sticker": 6280,
        "intersection": 6281,
        "ladder": 6282,
        "extro": 6283,
        "priced": 6284,
        "opinions": 6285,
        "expression": 6286,
        "consul": 6287,
        "issued": 6288,
        "itching": 6289,
        "taiwanese": 6290,
        "marg": 6291,
        "celebration": 6292,
        "brakes": 6293,
        "kilogram": 6294,
        "mouse": 6295,
        "screw": 6296,
        "declar": 6297,
        "easter": 6298,
        "relatively": 6299,
        "prison": 6300,
        "assignment": 6301,
        "talented": 6302,
        "statue": 6303,
        "severe": 6304,
        "obama": 6305,
        "procedures": 6306,
        "sleeper": 6307,
        "principles": 6308,
        "applicants": 6309,
        "explore": 6310,
        "attracted": 6311,
        "frightened": 6312,
        "purchasing": 6313,
        "wholesale": 6314,
        "flew": 6315,
        "continental": 6316,
        "volley": 6317,
        "hollywood": 6318,
        "cashier": 6319,
        "prompt": 6320,
        "diction": 6321,
        "explanation": 6322,
        "significant": 6323,
        "mbered": 6324,
        "irrevocable": 6325,
        "breeze": 6326,
        "expense": 6327,
        "margaret": 6328,
        "volleyball": 6329,
        "ito": 6330,
        "isa": 6331,
        "lean": 6332,
        "beth": 6333,
        "sso": 6334,
        "stall": 6335,
        "roc": 6336,
        "pers": 6337,
        "plement": 6338,
        "mental": 6339,
        "acqu": 6340,
        "zard": 6341,
        "wered": 6342,
        "majo": 6343,
        "rais": 6344,
        "bug": 6345,
        "sake": 6346,
        "shoulders": 6347,
        "chinat": 6348,
        "romans": 6349,
        "cord": 6350,
        "badmin": 6351,
        "excess": 6352,
        "nations": 6353,
        "heads": 6354,
        "produc": 6355,
        "curry": 6356,
        "cession": 6357,
        "finals": 6358,
        "cutting": 6359,
        "izes": 6360,
        "onents": 6361,
        "bosses": 6362,
        "tiring": 6363,
        "primary": 6364,
        "cliff": 6365,
        "taxes": 6366,
        "eigh": 6367,
        "studio": 6368,
        "desire": 6369,
        "stuffed": 6370,
        "coverage": 6371,
        "sque": 6372,
        "attendants": 6373,
        "leaders": 6374,
        "successfully": 6375,
        "constru": 6376,
        "bruce": 6377,
        "actors": 6378,
        "mailed": 6379,
        "electrical": 6380,
        "availability": 6381,
        "technic": 6382,
        "beaches": 6383,
        "jumping": 6384,
        "complaining": 6385,
        "levels": 6386,
        "loun": 6387,
        "reconfirm": 6388,
        "protection": 6389,
        "lamp": 6390,
        "interrup": 6391,
        "gaso": 6392,
        "achievement": 6393,
        "headaches": 6394,
        "source": 6395,
        "regards": 6396,
        "challenges": 6397,
        "landsca": 6398,
        "admitted": 6399,
        "status": 6400,
        "differences": 6401,
        "shorter": 6402,
        "outdoors": 6403,
        "population": 6404,
        "journalism": 6405,
        "recipes": 6406,
        "mechanical": 6407,
        "coinc": 6408,
        "stanley": 6409,
        "citiz": 6410,
        "sacri": 6411,
        "elder": 6412,
        "constantly": 6413,
        "eighteen": 6414,
        "criminals": 6415,
        "dreadful": 6416,
        "mystery": 6417,
        "manufacturers": 6418,
        "ccino": 6419,
        "mathematics": 6420,
        "infection": 6421,
        "diligent": 6422,
        "reimburse": 6423,
        "convinced": 6424,
        "stewardess": 6425,
        "conservative": 6426,
        "exquis": 6427,
        "guaranteed": 6428,
        "dehydr": 6429,
        "majored": 6430,
        "chinatown": 6431,
        "badminton": 6432,
        "eighth": 6433,
        "gasoline": 6434,
        "landscape": 6435,
        "exquisite": 6436,
        "87": 6437,
        "44": 6438,
        "89": 6439,
        "31": 6440,
        "64": 6441,
        "tha": 6442,
        "ole": 6443,
        "hah": 6444,
        "alan": 6445,
        "gel": 6446,
        "amou": 6447,
        "adam": 6448,
        "tam": 6449,
        "thered": 6450,
        "terry": 6451,
        "sple": 6452,
        "nder": 6453,
        "ender": 6454,
        "aps": 6455,
        "ession": 6456,
        "gig": 6457,
        "resche": 6458,
        "spin": 6459,
        "stable": 6460,
        "unable": 6461,
        "saus": 6462,
        "grind": 6463,
        "ously": 6464,
        "lous": 6465,
        "cathe": 6466,
        "cath": 6467,
        "cia": 6468,
        "carl": 6469,
        "interpre": 6470,
        "integr": 6471,
        "dim": 6472,
        "nerve": 6473,
        "classroom": 6474,
        "ggle": 6475,
        "happiness": 6476,
        "chart": 6477,
        "thetic": 6478,
        "signal": 6479,
        "specials": 6480,
        "cuts": 6481,
        "201": 6482,
        "interviewers": 6483,
        "egy": 6484,
        "travelers": 6485,
        "ballot": 6486,
        "baking": 6487,
        "eval": 6488,
        "hammer": 6489,
        "treas": 6490,
        "rained": 6491,
        "loses": 6492,
        "cooler": 6493,
        "appreciated": 6494,
        "scheme": 6495,
        "purple": 6496,
        "chron": 6497,
        "veyor": 6498,
        "healthier": 6499,
        "obtain": 6500,
        "horses": 6501,
        "surround": 6502,
        "grapes": 6503,
        "dying": 6504,
        "transmission": 6505,
        "advertised": 6506,
        "extend": 6507,
        "safely": 6508,
        "loads": 6509,
        "oops": 6510,
        "industries": 6511,
        "quitting": 6512,
        "brake": 6513,
        "memorial": 6514,
        "investor": 6515,
        "colleague": 6516,
        "supporting": 6517,
        "boost": 6518,
        "decorate": 6519,
        "rarely": 6520,
        "buttons": 6521,
        "species": 6522,
        "audition": 6523,
        "prizes": 6524,
        "gala": 6525,
        "hiding": 6526,
        "smoothly": 6527,
        "cancellation": 6528,
        "platin": 6529,
        "porterhouse": 6530,
        "sweaters": 6531,
        "rapid": 6532,
        "investigation": 6533,
        "diana": 6534,
        "suffering": 6535,
        "oaks": 6536,
        "predictable": 6537,
        "costumes": 6538,
        "tify": 6539,
        "pulse": 6540,
        "delighted": 6541,
        "fiancee": 6542,
        "aerobics": 6543,
        "interviewed": 6544,
        "absence": 6545,
        "ignore": 6546,
        "pharmacy": 6547,
        "mignon": 6548,
        "circulation": 6549,
        "pronunciation": 6550,
        "dalian": 6551,
        "embarrassed": 6552,
        "blanket": 6553,
        "parsons": 6554,
        "declaration": 6555,
        "remembered": 6556,
        "amounts": 6557,
        "splen": 6558,
        "reschedu": 6559,
        "lousy": 6560,
        "cathedr": 6561,
        "evaluation": 6562,
        "platinum": 6563,
        "splendid": 6564,
        "iq": 6565,
        "aha": 6566,
        "goo": 6567,
        "oral": 6568,
        "asy": 6569,
        "asha": 6570,
        "dge": 6571,
        "sus": 6572,
        "nam": 6573,
        "tun": 6574,
        "ius": 6575,
        "pup": 6576,
        "outlet": 6577,
        "fob": 6578,
        "blew": 6579,
        "sheer": 6580,
        "ulty": 6581,
        "moreover": 6582,
        "overcome": 6583,
        "restroom": 6584,
        "mango": 6585,
        "dude": 6586,
        "penn": 6587,
        "artist": 6588,
        "fined": 6589,
        "puts": 6590,
        "actor": 6591,
        "attor": 6592,
        "vary": 6593,
        "manner": 6594,
        "asks": 6595,
        "dolls": 6596,
        "xious": 6597,
        "thoughts": 6598,
        "babies": 6599,
        "plum": 6600,
        "string": 6601,
        "licence": 6602,
        "jail": 6603,
        "auction": 6604,
        "secondly": 6605,
        "invoking": 6606,
        "tube": 6607,
        "suited": 6608,
        "vital": 6609,
        "porters": 6610,
        "prime": 6611,
        "semi": 6612,
        "penny": 6613,
        "becomes": 6614,
        "foster": 6615,
        "boxing": 6616,
        "wheat": 6617,
        "modest": 6618,
        "paste": 6619,
        "shorts": 6620,
        "practise": 6621,
        "reported": 6622,
        "helmet": 6623,
        "placing": 6624,
        "dryer": 6625,
        "artific": 6626,
        "timing": 6627,
        "flick": 6628,
        "confis": 6629,
        "horn": 6630,
        "suppor": 6631,
        "answering": 6632,
        "fortunate": 6633,
        "tapes": 6634,
        "sights": 6635,
        "nicer": 6636,
        "baked": 6637,
        "stomac": 6638,
        "taller": 6639,
        "thanksgiving": 6640,
        "qualification": 6641,
        "jams": 6642,
        "bothers": 6643,
        "bowling": 6644,
        "revol": 6645,
        "securities": 6646,
        "competent": 6647,
        "tourists": 6648,
        "castle": 6649,
        "circle": 6650,
        "deserved": 6651,
        "charging": 6652,
        "originally": 6653,
        "critical": 6654,
        "interior": 6655,
        "bacon": 6656,
        "instruments": 6657,
        "fying": 6658,
        "scul": 6659,
        "textbooks": 6660,
        "chairs": 6661,
        "printing": 6662,
        "vacancies": 6663,
        "resource": 6664,
        "balanced": 6665,
        "hunter": 6666,
        "knocked": 6667,
        "gentleman": 6668,
        "reporter": 6669,
        "inquire": 6670,
        "christian": 6671,
        "reunion": 6672,
        "shifts": 6673,
        "spray": 6674,
        "bricks": 6675,
        "catalogues": 6676,
        "contains": 6677,
        "caffe": 6678,
        "recipe": 6679,
        "costume": 6680,
        "russian": 6681,
        "rugby": 6682,
        "passionate": 6683,
        "necessarily": 6684,
        "introverted": 6685,
        "jessica": 6686,
        "allergic": 6687,
        "benefici": 6688,
        "idol": 6689,
        "yog": 6690,
        "phew": 6691,
        "directors": 6692,
        "fascinating": 6693,
        "leisure": 6694,
        "andrew": 6695,
        "embarrassing": 6696,
        "blosso": 6697,
        "puccino": 6698,
        "dehydrated": 6699,
        "artificial": 6700,
        "stomacha": 6701,
        "sculpt": 6702,
        "yogurt": 6703,
        "hm": 6704,
        "99": 6705,
        "dj": 6706,
        "qi": 6707,
        "84": 6708,
        "pit": 6709,
        "mere": 6710,
        "qing": 6711,
        "jar": 6712,
        "lian": 6713,
        "arer": 6714,
        "coal": 6715,
        "cans": 6716,
        "insu": 6717,
        "ades": 6718,
        "ode": 6719,
        "bam": 6720,
        "remo": 6721,
        "tao": 6722,
        "tap": 6723,
        "sher": 6724,
        "iffe": 6725,
        "mun": 6726,
        "defe": 6727,
        "daytime": 6728,
        "workout": 6729,
        "weap": 6730,
        "resto": 6731,
        "dock": 6732,
        "suck": 6733,
        "aint": 6734,
        "amend": 6735,
        "susp": 6736,
        "pray": 6737,
        "users": 6738,
        "bris": 6739,
        "gues": 6740,
        "chores": 6741,
        "lims": 6742,
        "teries": 6743,
        "exist": 6744,
        "sang": 6745,
        "stew": 6746,
        "phr": 6747,
        "lighting": 6748,
        "shade": 6749,
        "handy": 6750,
        "crease": 6751,
        "oldest": 6752,
        "sett": 6753,
        "roughly": 6754,
        "kim": 6755,
        "broc": 6756,
        "curb": 6757,
        "bail": 6758,
        "cram": 6759,
        "anmen": 6760,
        "infect": 6761,
        "informal": 6762,
        "moves": 6763,
        "incen": 6764,
        "muscle": 6765,
        "hua": 6766,
        "nause": 6767,
        "doctors": 6768,
        "depositing": 6769,
        "dealer": 6770,
        "profits": 6771,
        "pond": 6772,
        "seventh": 6773,
        "foreigner": 6774,
        "illness": 6775,
        "tested": 6776,
        "dishon": 6777,
        "wallow": 6778,
        "chub": 6779,
        "varies": 6780,
        "hardcover": 6781,
        "flour": 6782,
        "infl": 6783,
        "chili": 6784,
        "slides": 6785,
        "oscar": 6786,
        "naught": 6787,
        "supplier": 6788,
        "loading": 6789,
        "silent": 6790,
        "singapo": 6791,
        "consump": 6792,
        "values": 6793,
        "speeding": 6794,
        "euros": 6795,
        "dreaming": 6796,
        "throwing": 6797,
        "jewell": 6798,
        "housekeeping": 6799,
        "conserve": 6800,
        "fares": 6801,
        "mastercard": 6802,
        "purchased": 6803,
        "cabin": 6804,
        "examples": 6805,
        "experiencing": 6806,
        "inches": 6807,
        "typed": 6808,
        "polluted": 6809,
        "agrees": 6810,
        "haunt": 6811,
        "archite": 6812,
        "partners": 6813,
        "champion": 6814,
        "equipments": 6815,
        "canadian": 6816,
        "roasted": 6817,
        "burgers": 6818,
        "roommates": 6819,
        "attached": 6820,
        "sailing": 6821,
        "geez": 6822,
        "dormi": 6823,
        "requested": 6824,
        "cousins": 6825,
        "independently": 6826,
        "contribution": 6827,
        "packaging": 6828,
        "encouraging": 6829,
        "terminal": 6830,
        "adopt": 6831,
        "leadership": 6832,
        "victim": 6833,
        "locker": 6834,
        "participate": 6835,
        "unlimited": 6836,
        "ethnic": 6837,
        "conclus": 6838,
        "funeral": 6839,
        "realistic": 6840,
        "lakes": 6841,
        "sprite": 6842,
        "applications": 6843,
        "stealing": 6844,
        "alternative": 6845,
        "pyram": 6846,
        "punish": 6847,
        "priority": 6848,
        "envelopes": 6849,
        "destroyed": 6850,
        "scientists": 6851,
        "guts": 6852,
        "resistant": 6853,
        "thunderstorms": 6854,
        "correspond": 6855,
        "chapter": 6856,
        "spilled": 6857,
        "industrial": 6858,
        "cavity": 6859,
        "pamphlet": 6860,
        "philosophy": 6861,
        "stockholders": 6862,
        "alpha": 6863,
        "guilty": 6864,
        "violin": 6865,
        "situations": 6866,
        "flesh": 6867,
        "extroverted": 6868,
        "dictionary": 6869,
        "naughty": 6870,
        "singapore": 6871,
        "jewellery": 6872,
        "architecture": 6873,
        "05": 6874,
        "thou": 6875,
        "iner": 6876,
        "bee": 6877,
        "asse": 6878,
        "chi": 6879,
        "sch": 6880,
        "sno": 6881,
        "cany": 6882,
        "loo": 6883,
        "pant": 6884,
        "trid": 6885,
        "user": 6886,
        "mph": 6887,
        "poe": 6888,
        "persu": 6889,
        "needing": 6890,
        "exag": 6891,
        "fox": 6892,
        "pong": 6893,
        "beck": 6894,
        "aside": 6895,
        "cheat": 6896,
        "chew": 6897,
        "oom": 6898,
        "sters": 6899,
        "clam": 6900,
        "owned": 6901,
        "reader": 6902,
        "longing": 6903,
        "nomin": 6904,
        "kindly": 6905,
        "uded": 6906,
        "anyways": 6907,
        "nues": 6908,
        "rented": 6909,
        "shock": 6910,
        "liang": 6911,
        "ague": 6912,
        "parked": 6913,
        "vegg": 6914,
        "planes": 6915,
        "maps": 6916,
        "ordering": 6917,
        "mistic": 6918,
        "needles": 6919,
        "asset": 6920,
        "hank": 6921,
        "broo": 6922,
        "scent": 6923,
        "crown": 6924,
        "buried": 6925,
        "emphas": 6926,
        "brunch": 6927,
        "tutor": 6928,
        "beings": 6929,
        "850": 6930,
        "quiz": 6931,
        "latte": 6932,
        "cds": 6933,
        "nerves": 6934,
        "bloody": 6935,
        "rober": 6936,
        "missions": 6937,
        "majoring": 6938,
        "bookshop": 6939,
        "dao": 6940,
        "steady": 6941,
        "farming": 6942,
        "ternal": 6943,
        "captain": 6944,
        "manual": 6945,
        "queue": 6946,
        "worthwhile": 6947,
        "medicines": 6948,
        "jackson": 6949,
        "underground": 6950,
        "eyel": 6951,
        "treats": 6952,
        "winner": 6953,
        "investing": 6954,
        "deny": 6955,
        "performances": 6956,
        "oscars": 6957,
        "improved": 6958,
        "filed": 6959,
        "loaded": 6960,
        "wings": 6961,
        "residence": 6962,
        "bellboy": 6963,
        "swit": 6964,
        "recru": 6965,
        "crossing": 6966,
        "wondered": 6967,
        "packet": 6968,
        "suitcases": 6969,
        "perks": 6970,
        "craft": 6971,
        "repairing": 6972,
        "visitor": 6973,
        "626": 6974,
        "disgust": 6975,
        "committee": 6976,
        "galler": 6977,
        "suzhou": 6978,
        "broadway": 6979,
        "commodity": 6980,
        "tourism": 6981,
        "toothbrush": 6982,
        "northern": 6983,
        "turbu": 6984,
        "convince": 6985,
        "snakes": 6986,
        "increases": 6987,
        "stiff": 6988,
        "tariff": 6989,
        "practicing": 6990,
        "mileage": 6991,
        "female": 6992,
        "muscles": 6993,
        "napkins": 6994,
        "pouring": 6995,
        "techniques": 6996,
        "shining": 6997,
        "insured": 6998,
        "initiative": 6999,
        "prefers": 7000,
        "insert": 7001,
        "honored": 7002,
        "increasing": 7003,
        "bracelet": 7004,
        "magnific": 7005,
        "uten": 7006,
        "comprehensive": 7007,
        "components": 7008,
        "lounge": 7009,
        "bothered": 7010,
        "caffeine": 7011,
        "dishonest": 7012,
        "haunted": 7013,
        "cartrid": 7014,
        "exagger": 7015,
        "roberts": 7016,
        "galleries": 7017,
        "turbulence": 7018,
        "magnificent": 7019,
        "utensils": 7020,
        "59": 7021,
        "ita": 7022,
        "wit": 7023,
        "mei": 7024,
        "whit": 7025,
        "sop": 7026,
        "lion": 7027,
        "hid": 7028,
        "stab": 7029,
        "iac": 7030,
        "lyn": 7031,
        "mam": 7032,
        "pean": 7033,
        "onion": 7034,
        "dong": 7035,
        "dev": 7036,
        "det": 7037,
        "bind": 7038,
        "expo": 7039,
        "wend": 7040,
        "acup": 7041,
        "usive": 7042,
        "agen": 7043,
        "intake": 7044,
        "blend": 7045,
        "hail": 7046,
        "ains": 7047,
        "rack": 7048,
        "shred": 7049,
        "nity": 7050,
        "bull": 7051,
        "cpr": 7052,
        "clar": 7053,
        "tence": 7054,
        "aysi": 7055,
        "gray": 7056,
        "mous": 7057,
        "teah": 7058,
        "cipl": 7059,
        "assess": 7060,
        "pies": 7061,
        "repay": 7062,
        "ggl": 7063,
        "cater": 7064,
        "renting": 7065,
        "yearly": 7066,
        "clint": 7067,
        "zip": 7068,
        "arbit": 7069,
        "elsewhere": 7070,
        "shares": 7071,
        "enjoys": 7072,
        "slic": 7073,
        "comments": 7074,
        "version": 7075,
        "rivers": 7076,
        "mature": 7077,
        "pub": 7078,
        "accent": 7079,
        "agreeable": 7080,
        "content": 7081,
        "polar": 7082,
        "movements": 7083,
        "excel": 7084,
        "spices": 7085,
        "ether": 7086,
        "5000": 7087,
        "130": 7088,
        "fount": 7089,
        "bara": 7090,
        "rides": 7091,
        "eria": 7092,
        "basics": 7093,
        "retail": 7094,
        "1500": 7095,
        "danny": 7096,
        "identity": 7097,
        "123": 7098,
        "twist": 7099,
        "saturdays": 7100,
        "cheng": 7101,
        "keyboard": 7102,
        "provin": 7103,
        "hotpot": 7104,
        "media": 7105,
        "majority": 7106,
        "reject": 7107,
        "promising": 7108,
        "closely": 7109,
        "metres": 7110,
        "native": 7111,
        "informative": 7112,
        "occur": 7113,
        "tempting": 7114,
        "programming": 7115,
        "capes": 7116,
        "drawing": 7117,
        "producing": 7118,
        "deduc": 7119,
        "heavily": 7120,
        "flyer": 7121,
        "miller": 7122,
        "teddy": 7123,
        "401": 7124,
        "ouched": 7125,
        "vegas": 7126,
        "turno": 7127,
        "capability": 7128,
        "granger": 7129,
        "yourselves": 7130,
        "graphic": 7131,
        "expressions": 7132,
        "divid": 7133,
        "darker": 7134,
        "pulling": 7135,
        "decade": 7136,
        "tieth": 7137,
        "sweetie": 7138,
        "desser": 7139,
        "refused": 7140,
        "westerners": 7141,
        "swing": 7142,
        "260": 7143,
        "crucial": 7144,
        "volu": 7145,
        "scenes": 7146,
        "deeply": 7147,
        "limits": 7148,
        "instrument": 7149,
        "measures": 7150,
        "kobe": 7151,
        "quette": 7152,
        "cleared": 7153,
        "carton": 7154,
        "demanding": 7155,
        "blogging": 7156,
        "alcoholic": 7157,
        "nursing": 7158,
        "tornadoes": 7159,
        "buns": 7160,
        "cheerful": 7161,
        "fools": 7162,
        "authority": 7163,
        "butterfly": 7164,
        "experts": 7165,
        "datab": 7166,
        "ruined": 7167,
        "commercials": 7168,
        "lung": 7169,
        "administr": 7170,
        "1234": 7171,
        "connecting": 7172,
        "bankrupt": 7173,
        "spectac": 7174,
        "principle": 7175,
        "civili": 7176,
        "strawberries": 7177,
        "nutrit": 7178,
        "breasts": 7179,
        "defense": 7180,
        "frustrated": 7181,
        "complimentary": 7182,
        "crisp": 7183,
        "reflect": 7184,
        "rachel": 7185,
        "lemonade": 7186,
        "russia": 7187,
        "knif": 7188,
        "eligi": 7189,
        "mutton": 7190,
        "biography": 7191,
        "allergies": 7192,
        "bumper": 7193,
        "imagined": 7194,
        "neighbourhood": 7195,
        "knees": 7196,
        "released": 7197,
        "hackers": 7198,
        "aborate": 7199,
        "accidents": 7200,
        "ebay": 7201,
        "concept": 7202,
        "phoned": 7203,
        "fau": 7204,
        "sponsor": 7205,
        "blouses": 7206,
        "exotic": 7207,
        "disturb": 7208,
        "whisky": 7209,
        "bureau": 7210,
        "nutrition": 7211,
        "ketchup": 7212,
        "accurate": 7213,
        "certified": 7214,
        "twenties": 7215,
        "fundrais": 7216,
        "investors": 7217,
        "reschedule": 7218,
        "cappuccino": 7219,
        "decrease": 7220,
        "itiner": 7221,
        "sophis": 7222,
        "detached": 7223,
        "wendy": 7224,
        "malaysi": 7225,
        "discipl": 7226,
        "ethernet": 7227,
        "deducti": 7228,
        "turnover": 7229,
        "desserts": 7230,
        "database": 7231,
        "nutritious": 7232,
        "faucet": 7233,
        "sophistic": 7234,
        "sophisticated": 7235,
        "oy": 7236,
        "57": 7237,
        "ret": 7238,
        "bis": 7239,
        "esy": 7240,
        "sta": 7241,
        "som": 7242,
        "jas": 7243,
        "liar": 7244,
        "aco": 7245,
        "tili": 7246,
        "bod": 7247,
        "erce": 7248,
        "tray": 7249,
        "oma": 7250,
        "mao": 7251,
        "dean": 7252,
        "dur": 7253,
        "vend": 7254,
        "vine": 7255,
        "ufo": 7256,
        "pend": 7257,
        "asap": 7258,
        "irish": 7259,
        "liking": 7260,
        "sory": 7261,
        "recall": 7262,
        "cious": 7263,
        "epis": 7264,
        "domin": 7265,
        "sitcom": 7266,
        "rows": 7267,
        "caring": 7268,
        "rud": 7269,
        "finds": 7270,
        "sony": 7271,
        "pans": 7272,
        "corder": 7273,
        "layou": 7274,
        "orang": 7275,
        "cise": 7276,
        "steel": 7277,
        "steep": 7278,
        "lighter": 7279,
        "liness": 7280,
        "oily": 7281,
        "clive": 7282,
        "sette": 7283,
        "rated": 7284,
        "awhile": 7285,
        "ankle": 7286,
        "skip": 7287,
        "adding": 7288,
        "xim": 7289,
        "remembering": 7290,
        "hilar": 7291,
        "portable": 7292,
        "billy": 7293,
        "inexpensive": 7294,
        "launch": 7295,
        "nathan": 7296,
        "350": 7297,
        "severance": 7298,
        "warri": 7299,
        "milan": 7300,
        "treating": 7301,
        "liber": 7302,
        "wonderfully": 7303,
        "onions": 7304,
        "submit": 7305,
        "monkey": 7306,
        "hottest": 7307,
        "aire": 7308,
        "discover": 7309,
        "damages": 7310,
        "rising": 7311,
        "appears": 7312,
        "singsong": 7313,
        "invested": 7314,
        "tread": 7315,
        "starter": 7316,
        "accu": 7317,
        "biking": 7318,
        "burgl": 7319,
        "burnt": 7320,
        "hopes": 7321,
        "unnecessary": 7322,
        "petrol": 7323,
        "seasons": 7324,
        "porcel": 7325,
        "unks": 7326,
        "apology": 7327,
        "banan": 7328,
        "inspect": 7329,
        "division": 7330,
        "radi": 7331,
        "memories": 7332,
        "gardening": 7333,
        "cultures": 7334,
        "exhibitions": 7335,
        "extended": 7336,
        "urgently": 7337,
        "protein": 7338,
        "pushing": 7339,
        "shipped": 7340,
        "embro": 7341,
        "ativ": 7342,
        "achievements": 7343,
        "repairs": 7344,
        "rhy": 7345,
        "nanjing": 7346,
        "vehicles": 7347,
        "unfurnished": 7348,
        "portions": 7349,
        "browse": 7350,
        "brows": 7351,
        "failure": 7352,
        "opard": 7353,
        "malia": 7354,
        "affected": 7355,
        "occupied": 7356,
        "belongings": 7357,
        "calories": 7358,
        "affection": 7359,
        "popcorn": 7360,
        "lectures": 7361,
        "fragr": 7362,
        "troubl": 7363,
        "eliza": 7364,
        "brazili": 7365,
        "accommodation": 7366,
        "rebound": 7367,
        "filthy": 7368,
        "beneficial": 7369,
        "institute": 7370,
        "assume": 7371,
        "relieved": 7372,
        "diplo": 7373,
        "receiver": 7374,
        "receiving": 7375,
        "quotations": 7376,
        "puzzles": 7377,
        "panda": 7378,
        "mushrooms": 7379,
        "bathtub": 7380,
        "disneyland": 7381,
        "orientation": 7382,
        "demonstr": 7383,
        "accusto": 7384,
        "bouquet": 7385,
        "determine": 7386,
        "cloudy": 7387,
        "seminar": 7388,
        "cubicle": 7389,
        "symbol": 7390,
        "reverse": 7391,
        "instructor": 7392,
        "newcomer": 7393,
        "aspects": 7394,
        "foul": 7395,
        "acknowled": 7396,
        "bulletin": 7397,
        "leftovers": 7398,
        "wagon": 7399,
        "construction": 7400,
        "rapidly": 7401,
        "genius": 7402,
        "faulty": 7403,
        "nephew": 7404,
        "stomachache": 7405,
        "bamboo": 7406,
        "consumption": 7407,
        "veggies": 7408,
        "eti": 7409,
        "fertili": 7410,
        "camcorder": 7411,
        "layout": 7412,
        "oranges": 7413,
        "approxim": 7414,
        "treadmill": 7415,
        "porcelain": 7416,
        "bananas": 7417,
        "ativity": 7418,
        "fragrance": 7419,
        "troublesome": 7420,
        "accustomed": 7421,
        "acknowledgments": 7422,
        "etiquette": 7423,
        "sc": 7424,
        "43": 7425,
        "41": 7426,
        "76": 7427,
        "inc": 7428,
        "anth": 7429,
        "rat": 7430,
        "rese": 7431,
        "vest": 7432,
        "nold": 7433,
        "oid": 7434,
        "rab": 7435,
        "outer": 7436,
        "ntic": 7437,
        "butt": 7438,
        "beam": 7439,
        "limo": 7440,
        "nowhere": 7441,
        "teas": 7442,
        "pole": 7443,
        "needle": 7444,
        "pap": 7445,
        "essay": 7446,
        "mble": 7447,
        "ots": 7448,
        "soil": 7449,
        "jog": 7450,
        "offs": 7451,
        "tent": 7452,
        "chequ": 7453,
        "greg": 7454,
        "spite": 7455,
        "spy": 7456,
        "acted": 7457,
        "coug": 7458,
        "makeup": 7459,
        "clut": 7460,
        "tingu": 7461,
        "bass": 7462,
        "agement": 7463,
        "blast": 7464,
        "meets": 7465,
        "blown": 7466,
        "dime": 7467,
        "actress": 7468,
        "gang": 7469,
        "clue": 7470,
        "toner": 7471,
        "tons": 7472,
        "excite": 7473,
        "beforehand": 7474,
        "hits": 7475,
        "kebab": 7476,
        "inations": 7477,
        "sings": 7478,
        "jean": 7479,
        "runner": 7480,
        "pension": 7481,
        "editing": 7482,
        "ainted": 7483,
        "507": 7484,
        "underwear": 7485,
        "holder": 7486,
        "paperback": 7487,
        "faces": 7488,
        "salesperson": 7489,
        "towers": 7490,
        "freak": 7491,
        "freck": 7492,
        "poster": 7493,
        "resident": 7494,
        "utility": 7495,
        "suzy": 7496,
        "sched": 7497,
        "insight": 7498,
        "waterfall": 7499,
        "reporting": 7500,
        "metro": 7501,
        "awk": 7502,
        "fixing": 7503,
        "pinch": 7504,
        "sucks": 7505,
        "2008": 7506,
        "drying": 7507,
        "pier": 7508,
        "thirties": 7509,
        "grandchildren": 7510,
        "drawer": 7511,
        "worthy": 7512,
        "annie": 7513,
        "damp": 7514,
        "waff": 7515,
        "performed": 7516,
        "horos": 7517,
        "starters": 7518,
        "cube": 7519,
        "turkey": 7520,
        "productive": 7521,
        "writers": 7522,
        "gaining": 7523,
        "controls": 7524,
        "snowing": 7525,
        "compat": 7526,
        "desert": 7527,
        "layover": 7528,
        "freezer": 7529,
        "standards": 7530,
        "hallo": 7531,
        "refle": 7532,
        "elbow": 7533,
        "cruel": 7534,
        "sharon": 7535,
        "shaped": 7536,
        "hoped": 7537,
        "hongkong": 7538,
        "instruction": 7539,
        "decorated": 7540,
        "evalu": 7541,
        "politic": 7542,
        "separately": 7543,
        "allergy": 7544,
        "communications": 7545,
        "catalog": 7546,
        "toler": 7547,
        "lunar": 7548,
        "dumped": 7549,
        "cambridge": 7550,
        "jake": 7551,
        "terminator": 7552,
        "assets": 7553,
        "peppers": 7554,
        "tomatoes": 7555,
        "colorado": 7556,
        "violent": 7557,
        "fetch": 7558,
        "chemist": 7559,
        "pumping": 7560,
        "conclude": 7561,
        "beeth": 7562,
        "disadvantages": 7563,
        "merely": 7564,
        "banana": 7565,
        "historic": 7566,
        "alike": 7567,
        "pitcher": 7568,
        "substan": 7569,
        "cabinets": 7570,
        "accommodate": 7571,
        "publishing": 7572,
        "iences": 7573,
        "enthusiastic": 7574,
        "scientist": 7575,
        "thriller": 7576,
        "bikin": 7577,
        "oxford": 7578,
        "yahoo": 7579,
        "handicapped": 7580,
        "cheek": 7581,
        "dishwasher": 7582,
        "slacks": 7583,
        "keepers": 7584,
        "ugly": 7585,
        "xyz": 7586,
        "jackets": 7587,
        "airsickness": 7588,
        "appointing": 7589,
        "healed": 7590,
        "category": 7591,
        "kicking": 7592,
        "tidy": 7593,
        "wrapping": 7594,
        "fuss": 7595,
        "emotion": 7596,
        "conflict": 7597,
        "squeeze": 7598,
        "sausages": 7599,
        "interpreter": 7600,
        "beneficiary": 7601,
        "cashmere": 7602,
        "remote": 7603,
        "settling": 7604,
        "swallow": 7605,
        "chubby": 7606,
        "dormitory": 7607,
        "punishment": 7608,
        "correspondence": 7609,
        "concluded": 7610,
        "league": 7611,
        "qingdao": 7612,
        "acupun": 7613,
        "competence": 7614,
        "barbara": 7615,
        "landscapes": 7616,
        "volume": 7617,
        "administrative": 7618,
        "knife": 7619,
        "eligible": 7620,
        "elaborate": 7621,
        "brazilian": 7622,
        "creativity": 7623,
        "anthony": 7624,
        "rabbit": 7625,
        "authe": 7626,
        "chequing": 7627,
        "excitement": 7628,
        "awkward": 7629,
        "compatible": 7630,
        "halloween": 7631,
        "beethoven": 7632,
        "substantial": 7633,
        "acupuncture": 7634,
        "authentic": 7635,
        "eq": 7636,
        "82": 7637,
        "fes": 7638,
        "sting": 7639,
        "dha": 7640,
        "seal": 7641,
        "nas": 7642,
        "chand": 7643,
        "scan": 7644,
        "neal": 7645,
        "aby": 7646,
        "ading": 7647,
        "ami": 7648,
        "moz": 7649,
        "ution": 7650,
        "sate": 7651,
        "inee": 7652,
        "pots": 7653,
        "compart": 7654,
        "thie": 7655,
        "opp": 7656,
        "wore": 7657,
        "teller": 7658,
        "simon": 7659,
        "chanel": 7660,
        "sitter": 7661,
        "lav": 7662,
        "wrink": 7663,
        "blur": 7664,
        "homes": 7665,
        "itary": 7666,
        "angle": 7667,
        "tonic": 7668,
        "poss": 7669,
        "tical": 7670,
        "meanwhile": 7671,
        "outline": 7672,
        "pretend": 7673,
        "abstr": 7674,
        "101": 7675,
        "freeway": 7676,
        "imate": 7677,
        "aim": 7678,
        "importantly": 7679,
        "consign": 7680,
        "produces": 7681,
        "1050": 7682,
        "token": 7683,
        "warn": 7684,
        "wishes": 7685,
        "weatherman": 7686,
        "bloom": 7687,
        "shorten": 7688,
        "beginner": 7689,
        "stub": 7690,
        "landing": 7691,
        "indication": 7692,
        "2002": 7693,
        "darn": 7694,
        "barce": 7695,
        "shopped": 7696,
        "visual": 7697,
        "playground": 7698,
        "entering": 7699,
        "agric": 7700,
        "firmly": 7701,
        "smoked": 7702,
        "sweep": 7703,
        "counterfe": 7704,
        "investments": 7705,
        "rolling": 7706,
        "sections": 7707,
        "astically": 7708,
        "berlin": 7709,
        "struck": 7710,
        "flush": 7711,
        "oat": 7712,
        "wangfu": 7713,
        "ucla": 7714,
        "earned": 7715,
        "gained": 7716,
        "financing": 7717,
        "bake": 7718,
        "stevens": 7719,
        "refres": 7720,
        "increased": 7721,
        "offici": 7722,
        "ounce": 7723,
        "outlets": 7724,
        "avoided": 7725,
        "niest": 7726,
        "scenic": 7727,
        "insurances": 7728,
        "consists": 7729,
        "battle": 7730,
        "moderate": 7731,
        "pedal": 7732,
        "gloves": 7733,
        "strictly": 7734,
        "declared": 7735,
        "northwest": 7736,
        "regardless": 7737,
        "breathtaking": 7738,
        "antiques": 7739,
        "upgrade": 7740,
        "receptionist": 7741,
        "assignments": 7742,
        "begun": 7743,
        "hats": 7744,
        "disappear": 7745,
        "royal": 7746,
        "waterproof": 7747,
        "communicating": 7748,
        "tricky": 7749,
        "subscribe": 7750,
        "gentlemen": 7751,
        "outrage": 7752,
        "itute": 7753,
        "vitamin": 7754,
        "butterflies": 7755,
        "consultant": 7756,
        "attachment": 7757,
        "irrit": 7758,
        "cros": 7759,
        "fragrant": 7760,
        "mcdonald": 7761,
        "conductor": 7762,
        "envelope": 7763,
        "appetizers": 7764,
        "association": 7765,
        "tracy": 7766,
        "technique": 7767,
        "knee": 7768,
        "translation": 7769,
        "objective": 7770,
        "calculate": 7771,
        "equipped": 7772,
        "threatening": 7773,
        "textile": 7774,
        "kathy": 7775,
        "pushed": 7776,
        "punctual": 7777,
        "shakespe": 7778,
        "implement": 7779,
        "answered": 7780,
        "technician": 7781,
        "cathol": 7782,
        "attorney": 7783,
        "anxious": 7784,
        "blossoms": 7785,
        "conclusion": 7786,
        "jasmine": 7787,
        "bodies": 7788,
        "fierce": 7789,
        "pendant": 7790,
        "cassette": 7791,
        "perseverance": 7792,
        "rhyth": 7793,
        "elizabeth": 7794,
        "approximately": 7795,
        "disappointing": 7796,
        "mozart": 7797,
        "satell": 7798,
        "thieves": 7799,
        "abstract": 7800,
        "barcelon": 7801,
        "agricult": 7802,
        "counterfeit": 7803,
        "oatmeal": 7804,
        "wangfujing": 7805,
        "refreshed": 7806,
        "shakespeare": 7807,
        "satellite": 7808,
        "barcelona": 7809,
        "ee": 7810,
        "iy": 7811,
        "wy": 7812,
        "46": 7813,
        "aa": 7814,
        "iny": 7815,
        "yan": 7816,
        "itis": 7817,
        "het": 7818,
        "dos": 7819,
        "forth": 7820,
        "ral": 7821,
        "inno": 7822,
        "solo": 7823,
        "mole": 7824,
        "hust": 7825,
        "pete": 7826,
        "rally": 7827,
        "dun": 7828,
        "pros": 7829,
        "pover": 7830,
        "eration": 7831,
        "iration": 7832,
        "quan": 7833,
        "deaf": 7834,
        "foli": 7835,
        "shen": 7836,
        "aright": 7837,
        "vast": 7838,
        "ila": 7839,
        "shell": 7840,
        "mig": 7841,
        "comprom": 7842,
        "nest": 7843,
        "jose": 7844,
        "abby": 7845,
        "kent": 7846,
        "enders": 7847,
        "iers": 7848,
        "ulars": 7849,
        "tears": 7850,
        "conten": 7851,
        "ndous": 7852,
        "ahh": 7853,
        "guid": 7854,
        "counts": 7855,
        "worms": 7856,
        "xture": 7857,
        "accompany": 7858,
        "saud": 7859,
        "nicely": 7860,
        "heater": 7861,
        "pav": 7862,
        "nav": 7863,
        "buys": 7864,
        "lance": 7865,
        "downs": 7866,
        "impol": 7867,
        "drought": 7868,
        "blon": 7869,
        "blah": 7870,
        "glue": 7871,
        "minds": 7872,
        "showers": 7873,
        "vip": 7874,
        "daylight": 7875,
        "evenly": 7876,
        "acious": 7877,
        "triv": 7878,
        "tops": 7879,
        "mulate": 7880,
        "concre": 7881,
        "lively": 7882,
        "wonders": 7883,
        "driven": 7884,
        "desp": 7885,
        "drank": 7886,
        "rum": 7887,
        "itations": 7888,
        "treme": 7889,
        "skate": 7890,
        "costly": 7891,
        "broth": 7892,
        "sends": 7893,
        "parlor": 7894,
        "cran": 7895,
        "lifetime": 7896,
        "poses": 7897,
        "departs": 7898,
        "departing": 7899,
        "sundays": 7900,
        "chase": 7901,
        "orna": 7902,
        "308": 7903,
        "soul": 7904,
        "thesis": 7905,
        "syn": 7906,
        "ruth": 7907,
        "scal": 7908,
        "nyu": 7909,
        "consist": 7910,
        "update": 7911,
        "ctory": 7912,
        "depth": 7913,
        "ffy": 7914,
        "jeff": 7915,
        "suff": 7916,
        "fake": 7917,
        "nationality": 7918,
        "operas": 7919,
        "specialize": 7920,
        "convention": 7921,
        "receives": 7922,
        "ltd": 7923,
        "kindness": 7924,
        "numer": 7925,
        "bugs": 7926,
        "funda": 7927,
        "winters": 7928,
        "superman": 7929,
        "phob": 7930,
        "finishing": 7931,
        "publication": 7932,
        "socks": 7933,
        "figuring": 7934,
        "dropping": 7935,
        "lenses": 7936,
        "object": 7937,
        "obli": 7938,
        "designers": 7939,
        "confess": 7940,
        "shocked": 7941,
        "searching": 7942,
        "desks": 7943,
        "strongly": 7944,
        "slide": 7945,
        "photograp": 7946,
        "osity": 7947,
        "tivity": 7948,
        "staring": 7949,
        "nelson": 7950,
        "sticky": 7951,
        "practically": 7952,
        "arched": 7953,
        "madrid": 7954,
        "recorded": 7955,
        "bonds": 7956,
        "daughters": 7957,
        "cuit": 7958,
        "vargas": 7959,
        "sighted": 7960,
        "candle": 7961,
        "approve": 7962,
        "nova": 7963,
        "ology": 7964,
        "alert": 7965,
        "jade": 7966,
        "throws": 7967,
        "viv": 7968,
        "cigars": 7969,
        "routes": 7970,
        "preference": 7971,
        "terrified": 7972,
        "palm": 7973,
        "digest": 7974,
        "jenn": 7975,
        "decline": 7976,
        "marriages": 7977,
        "agged": 7978,
        "paula": 7979,
        "rocky": 7980,
        "negotiable": 7981,
        "socket": 7982,
        "gratitude": 7983,
        "organizational": 7984,
        "raises": 7985,
        "titles": 7986,
        "beginners": 7987,
        "unbear": 7988,
        "maths": 7989,
        "resolve": 7990,
        "ceiling": 7991,
        "smiling": 7992,
        "politan": 7993,
        "warehouse": 7994,
        "stream": 7995,
        "stret": 7996,
        "cloths": 7997,
        "installments": 7998,
        "yale": 7999,
        "gressive": 8000,
        "convey": 8001,
        "thumb": 8002,
        "remains": 8003,
        "tablet": 8004,
        "regrets": 8005,
        "determin": 8006,
        "lifting": 8007,
        "annoy": 8008,
        "addiction": 8009,
        "hamburgers": 8010,
        "briefcase": 8011,
        "teenager": 8012,
        "risky": 8013,
        "joanne": 8014,
        "preferably": 8015,
        "minority": 8016,
        "artistic": 8017,
        "arranging": 8018,
        "compensate": 8019,
        "texas": 8020,
        "accessories": 8021,
        "breasted": 8022,
        "comparable": 8023,
        "bangk": 8024,
        "spaces": 8025,
        "loyalty": 8026,
        "updated": 8027,
        "injuries": 8028,
        "establishment": 8029,
        "favorites": 8030,
        "random": 8031,
        "errand": 8032,
        "butcher": 8033,
        "waves": 8034,
        "referring": 8035,
        "sentences": 8036,
        "moisturize": 8037,
        "deducted": 8038,
        "adventure": 8039,
        "gathering": 8040,
        "comedies": 8041,
        "inventory": 8042,
        "geography": 8043,
        "conferences": 8044,
        "chemicals": 8045,
        "clark": 8046,
        "announcement": 8047,
        "demonstrate": 8048,
        "statistics": 8049,
        "adorable": 8050,
        "clinic": 8051,
        "renov": 8052,
        "albums": 8053,
        "montgo": 8054,
        "consumers": 8055,
        "curious": 8056,
        "existing": 8057,
        "scotland": 8058,
        "robinson": 8059,
        "adapt": 8060,
        "cholester": 8061,
        "flattering": 8062,
        "shrink": 8063,
        "duplicate": 8064,
        "rocke": 8065,
        "recession": 8066,
        "sacrific": 8067,
        "marcia": 8068,
        "egypt": 8069,
        "surveyor": 8070,
        "notify": 8071,
        "cathedral": 8072,
        "sculpture": 8073,
        "eiffe": 8074,
        "amendment": 8075,
        "guessed": 8076,
        "muslims": 8077,
        "brocco": 8078,
        "panty": 8079,
        "external": 8080,
        "disgusting": 8081,
        "exaggerating": 8082,
        "agencies": 8083,
        "clinton": 8084,
        "arbitration": 8085,
        "criteria": 8086,
        "grangerfield": 8087,
        "spectacular": 8088,
        "itinerary": 8089,
        "malaysia": 8090,
        "episode": 8091,
        "hilarious": 8092,
        "engagement": 8093,
        "kebabs": 8094,
        "freckles": 8095,
        "bikini": 8096,
        "babysitter": 8097,
        "expiration": 8098,
        "joseph": 8099,
        "contents": 8100,
        "impolite": 8101,
        "gracious": 8102,
        "trivial": 8103,
        "concrete": 8104,
        "invitations": 8105,
        "numerous": 8106,
        "aggressive": 8107,
        "bangkok": 8108,
        "errands": 8109,
        "montgomer": 8110,
        "cholesterol": 8111,
        "rockefell": 8112,
        "eiffel": 8113,
        "broccoli": 8114,
        "montgomery": 8115,
        "rockefeller": 8116,
        "ez": 8117,
        "toy": 8118,
        "err": 8119,
        "pis": 8120,
        "theme": 8121,
        "lling": 8122,
        "oring": 8123,
        "core": 8124,
        "aces": 8125,
        "sion": 8126,
        "stun": 8127,
        "seek": 8128,
        "timely": 8129,
        "indis": 8130,
        "wanting": 8131,
        "therine": 8132,
        "outlook": 8133,
        "foc": 8134,
        "ula": 8135,
        "dres": 8136,
        "pts": 8137,
        "compul": 8138,
        "compo": 8139,
        "newest": 8140,
        "react": 8141,
        "irable": 8142,
        "sav": 8143,
        "overwork": 8144,
        "absor": 8145,
        "cape": 8146,
        "caut": 8147,
        "mona": 8148,
        "workman": 8149,
        "server": 8150,
        "dumb": 8151,
        "pile": 8152,
        "mentary": 8153,
        "labe": 8154,
        "salmon": 8155,
        "ggie": 8156,
        "planner": 8157,
        "charm": 8158,
        "border": 8159,
        "istles": 8160,
        "closet": 8161,
        "enjoyable": 8162,
        "imported": 8163,
        "brook": 8164,
        "curve": 8165,
        "curfew": 8166,
        "fulfill": 8167,
        "uals": 8168,
        "mailing": 8169,
        "sunset": 8170,
        "satin": 8171,
        "3000": 8172,
        "halfway": 8173,
        "interviewing": 8174,
        "marath": 8175,
        "gradually": 8176,
        "sporting": 8177,
        "ringing": 8178,
        "facts": 8179,
        "wages": 8180,
        "presentations": 8181,
        "poet": 8182,
        "parks": 8183,
        "hebes": 8184,
        "depress": 8185,
        "voy": 8186,
        "reconsider": 8187,
        "interpersonal": 8188,
        "ators": 8189,
        "pins": 8190,
        "graduates": 8191,
        "managerial": 8192,
        "superst": 8193,
        "empire": 8194,
        "transferring": 8195,
        "2004": 8196,
        "shield": 8197,
        "tempt": 8198,
        "covering": 8199,
        "margar": 8200,
        "specialties": 8201,
        "ancing": 8202,
        "blocked": 8203,
        "sweethe": 8204,
        "treatments": 8205,
        "directed": 8206,
        "millan": 8207,
        "contacting": 8208,
        "policeman": 8209,
        "unhealthy": 8210,
        "burst": 8211,
        "fluent": 8212,
        "corrid": 8213,
        "clai": 8214,
        "legis": 8215,
        "cloud": 8216,
        "160": 8217,
        "visible": 8218,
        "poorly": 8219,
        "reminded": 8220,
        "fireworks": 8221,
        "complained": 8222,
        "officers": 8223,
        "involve": 8224,
        "inspector": 8225,
        "pizz": 8226,
        "artists": 8227,
        "motorway": 8228,
        "beats": 8229,
        "plumber": 8230,
        "forks": 8231,
        "organizations": 8232,
        "electrician": 8233,
        "expired": 8234,
        "loudly": 8235,
        "excuses": 8236,
        "textbook": 8237,
        "bakery": 8238,
        "politics": 8239,
        "separated": 8240,
        "patients": 8241,
        "houston": 8242,
        "flip": 8243,
        "colours": 8244,
        "kicks": 8245,
        "manufacturing": 8246,
        "inevit": 8247,
        "wildlife": 8248,
        "rushed": 8249,
        "compliments": 8250,
        "meaningful": 8251,
        "theaters": 8252,
        "joanna": 8253,
        "strateg": 8254,
        "megap": 8255,
        "african": 8256,
        "forests": 8257,
        "ahaha": 8258,
        "karl": 8259,
        "athletics": 8260,
        "encouragement": 8261,
        "ological": 8262,
        "cowor": 8263,
        "adviser": 8264,
        "bingo": 8265,
        "pilfer": 8266,
        "1739": 8267,
        "mutual": 8268,
        "misunderstood": 8269,
        "troubles": 8270,
        "attractions": 8271,
        "barrier": 8272,
        "perrier": 8273,
        "gallon": 8274,
        "folder": 8275,
        "idiom": 8276,
        "firecrackers": 8277,
        "sized": 8278,
        "presidential": 8279,
        "discourage": 8280,
        "equivalent": 8281,
        "ixel": 8282,
        "album": 8283,
        "montreal": 8284,
        "manicure": 8285,
        "valley": 8286,
        "ctives": 8287,
        "recreation": 8288,
        "slippers": 8289,
        "tattoos": 8290,
        "southeast": 8291,
        "kilograms": 8292,
        "coincidence": 8293,
        "citizens": 8294,
        "galax": 8295,
        "toothpaste": 8296,
        "supportive": 8297,
        "tapestry": 8298,
        "batteries": 8299,
        "assemb": 8300,
        "canyon": 8301,
        "becky": 8302,
        "homer": 8303,
        "nominated": 8304,
        "emphasize": 8305,
        "recruit": 8306,
        "cheesy": 8307,
        "jaco": 8308,
        "leopard": 8309,
        "waffles": 8310,
        "buddha": 8311,
        "compartment": 8312,
        "funniest": 8313,
        "crossed": 8314,
        "innocent": 8315,
        "soldiers": 8316,
        "freelance": 8317,
        "catherine": 8318,
        "desirable": 8319,
        "marathon": 8320,
        "voyage": 8321,
        "corridor": 8322,
        "pizzas": 8323,
        "ahahah": 8324,
        "pilferage": 8325,
        "megapixel": 8326,
        "galaxies": 8327,
        "homeroom": 8328,
        "62": 8329,
        "rer": 8330,
        "kis": 8331,
        "vet": 8332,
        "aling": 8333,
        "fal": 8334,
        "edit": 8335,
        "lili": 8336,
        "gover": 8337,
        "slo": 8338,
        "acle": 8339,
        "remy": 8340,
        "oker": 8341,
        "pod": 8342,
        "amp": 8343,
        "tale": 8344,
        "lete": 8345,
        "tear": 8346,
        "unde": 8347,
        "rede": 8348,
        "hoc": 8349,
        "zation": 8350,
        "ives": 8351,
        "aine": 8352,
        "uine": 8353,
        "foo": 8354,
        "vul": 8355,
        "boil": 8356,
        "gthen": 8357,
        "cree": 8358,
        "onent": 8359,
        "entre": 8360,
        "insp": 8361,
        "myra": 8362,
        "resort": 8363,
        "nish": 8364,
        "saver": 8365,
        "mbs": 8366,
        "greater": 8367,
        "owns": 8368,
        "inher": 8369,
        "coca": 8370,
        "almon": 8371,
        "tibet": 8372,
        "partly": 8373,
        "carto": 8374,
        "duh": 8375,
        "ripen": 8376,
        "impor": 8377,
        "drain": 8378,
        "blu": 8379,
        "output": 8380,
        "input": 8381,
        "dispen": 8382,
        "monary": 8383,
        "stip": 8384,
        "luct": 8385,
        "cares": 8386,
        "turnst": 8387,
        "elvis": 8388,
        "crew": 8389,
        "discre": 8390,
        "desc": 8391,
        "pretti": 8392,
        "stric": 8393,
        "views": 8394,
        "payments": 8395,
        "opens": 8396,
        "icals": 8397,
        "gramer": 8398,
        "tials": 8399,
        "vcr": 8400,
        "bedside": 8401,
        "childs": 8402,
        "medals": 8403,
        "aspect": 8404,
        "ballo": 8405,
        "stating": 8406,
        "sincere": 8407,
        "gotcha": 8408,
        "hotter": 8409,
        "4000": 8410,
        "worries": 8411,
        "hates": 8412,
        "picky": 8413,
        "kenmore": 8414,
        "descri": 8415,
        "scold": 8416,
        "agents": 8417,
        "lator": 8418,
        "filter": 8419,
        "bones": 8420,
        "calc": 8421,
        "wiring": 8422,
        "bummer": 8423,
        "produced": 8424,
        "stunts": 8425,
        "mommy": 8426,
        "berry": 8427,
        "programme": 8428,
        "handled": 8429,
        "facility": 8430,
        "unions": 8431,
        "posture": 8432,
        "postage": 8433,
        "posting": 8434,
        "catches": 8435,
        "purit": 8436,
        "generations": 8437,
        "timer": 8438,
        "popularity": 8439,
        "virtu": 8440,
        "superb": 8441,
        "indire": 8442,
        "hairstyle": 8443,
        "locks": 8444,
        "flame": 8445,
        "tefl": 8446,
        "stepped": 8447,
        "fashions": 8448,
        "drawn": 8449,
        "accordingly": 8450,
        "neighb": 8451,
        "sticking": 8452,
        "sword": 8453,
        "tavern": 8454,
        "educated": 8455,
        "necessities": 8456,
        "lined": 8457,
        "squid": 8458,
        "bury": 8459,
        "scream": 8460,
        "shapes": 8461,
        "cuff": 8462,
        "graphics": 8463,
        "candles": 8464,
        "stockings": 8465,
        "fade": 8466,
        "professionals": 8467,
        "removed": 8468,
        "disagreement": 8469,
        "praise": 8470,
        "139": 8471,
        "zhong": 8472,
        "tracks": 8473,
        "gardens": 8474,
        "offended": 8475,
        "345": 8476,
        "tends": 8477,
        "faxes": 8478,
        "jelly": 8479,
        "orches": 8480,
        "error": 8481,
        "terror": 8482,
        "greenwich": 8483,
        "mixing": 8484,
        "advent": 8485,
        "uniforms": 8486,
        "slam": 8487,
        "widely": 8488,
        "corners": 8489,
        "repa": 8490,
        "cylind": 8491,
        "valued": 8492,
        "febru": 8493,
        "peck": 8494,
        "mulated": 8495,
        "preparations": 8496,
        "refilled": 8497,
        "combines": 8498,
        "typist": 8499,
        "religions": 8500,
        "grip": 8501,
        "doris": 8502,
        "slice": 8503,
[...]
